/**
  ******************************************************************************
  * @file    ae_model_data_params.c
  * @author  AST Embedded Analytics Research Platform
  * @date    2026-03-26T18:16:38+0900
  * @brief   AI Tool Automatic Code Generator for Embedded NN computing
  ******************************************************************************
  * Copyright (c) 2026 STMicroelectronics.
  * All rights reserved.
  *
  * This software is licensed under terms that can be found in the LICENSE file
  * in the root directory of this software component.
  * If no LICENSE file comes with this software, it is provided AS-IS.
  ******************************************************************************
  */

#include "ae_model_data_params.h"


/**  Activations Section  ****************************************************/
ai_handle g_ae_model_activations_table[1 + 2] = {
  AI_HANDLE_PTR(AI_MAGIC_MARKER),
  AI_HANDLE_PTR(NULL),
  AI_HANDLE_PTR(AI_MAGIC_MARKER),
};




/**  Weights Section  ********************************************************/
AI_ALIGNED(32)
const ai_u64 s_ae_model_weights_array_u64[2023] = {
  0xbcef930a3e5d03baU, 0xbdb75ffebeb3e608U, 0x3d12c9d5be8a9a3eU, 0x3e901aa5bde56428U,
  0x3d0e0bca3de238baU, 0xbdf446d93ea4634cU, 0xbda3453dbd924799U, 0x3e707e46be57d2ffU,
  0xbe0bd42e3e86066bU, 0xbe65011e3e480f6cU, 0x3e9494f23dc684a8U, 0x3e6917db3d5c3465U,
  0x3e534c053e8427cbU, 0x3df144453e05bd4fU, 0xbe15c6783d32dbfcU, 0x3e2025893cae7508U,
  0xbda717e43e2440a6U, 0xbe89f7453e9ac1a8U, 0xbe2f79763e935a26U, 0xbe03f21cbe8493e4U,
  0xbdf8581ebe2d7a4eU, 0x3da1f3c4be9952daU, 0x3dda39c0bd8c4154U, 0xbc30a320be025e98U,
  0xbe8a6c0bbe626a90U, 0x3d0a89203e0fb032U, 0x3d87e2203e3f098eU, 0x3e8e37783e467ef9U,
  0x3d4c1f973ce0daf7U, 0xbe9197f6be9954b4U, 0xbe9384333e73fe48U, 0xbe9a2a3abe109e51U,
  0x3dfd8ad7be4ca4bbU, 0xbe43ca753dffeb97U, 0x3d3ee106be20ff25U, 0x3e1dfe903d234076U,
  0x3d392d8d3e58f890U, 0xbd80c5a7bd2de1cfU, 0x3d8ef4a53d66c1f4U, 0xbe5b5d05bdb8591dU,
  0x3dbf3c79bd25a0b8U, 0x3e49e1903e9a5292U, 0xbe6dcf15bde3d59cU, 0x3e4ef451beb0e15aU,
  0xbd8e98723db2ecb9U, 0x3e850861bdea8d80U, 0xbbede3103bfe2528U, 0x3e593544bda3d315U,
  0xbd1c89f8be86600aU, 0x3e3f3b8a3e5291e2U, 0x3e3e943bbcd18900U, 0x3e766db3bd670872U,
  0xbd108833be01104cU, 0xbe091698be143eadU, 0x3e85efe13e0f5ffcU, 0x3dcc0a73be3b00bfU,
  0xbd15c649bd72a8e9U, 0xbe7c3d71be594f13U, 0x3e8a67afbe6521ccU, 0xbe10531ebe8bc22bU,
  0x3e8fff37bcedad6aU, 0x3e70d3d2be1f653dU, 0xbe8fc2debe9b3c38U, 0xbdf9102c3e81f0acU,
  0xbe898c723dbd6682U, 0x3dfad94bbd11e20fU, 0x3e806bfabe09c8c1U, 0xbe5ffba13e8b42d0U,
  0x3e5d7df7bd94a493U, 0x3e6c8407be801577U, 0x3e0fcc81be9256f4U, 0x3e3eab3bbd87b608U,
  0xbea2e5a9bd9e4a89U, 0xbe17da093e02e469U, 0xbe7045e63e46242eU, 0x3e5f59e1bd873d81U,
  0x3e2dcfc73d82a56cU, 0xbe91a225be6cc999U, 0xbba90af43e1bf74bU, 0x3e82d26a3e720947U,
  0xbdaf2d24be69aa19U, 0xbe90863e3e3b8444U, 0xbe2eaae8be994c3aU, 0xbd8c13fcbe2011ceU,
  0x3d3746783deb5430U, 0xbe83dbccbdb3320cU, 0x3e6175f03e7a78acU, 0x3d816780be72139bU,
  0x3d788698bd02d2d0U, 0xbe8c8e7dbda9b052U, 0xbe966095be91edc1U, 0x3e14667c3d9a4b60U,
  0xbe13335c3e01cc30U, 0xbe51ac203e325d1aU, 0x3d4556d83d95eb1cU, 0x3e31ad88be943c2eU,
  0xbda53f52bc950da0U, 0xbe67d45dbe7bf16cU, 0xbde5b4c6be430c8fU, 0xbdd082adbea9285aU,
  0x3e6f3c26be67a1c7U, 0xbe07a7fd3ddd09deU, 0xbe2a60b7bd8813dbU, 0x3e8a88973e0b8752U,
  0xbdd25d273e8565d4U, 0xbd2d8d8bb85b50e4U, 0x3e89199dbe9c9d03U, 0xbc7b8d9cbd9b77a3U,
  0x3e1b4aa93e92ce19U, 0xbda5473fbe4ab7d1U, 0x3e08eb23bd048fb8U, 0x3d94702d3e595d4eU,
  0x3e88f34fbe1d9bebU, 0x3da19c9abd0ca327U, 0x3e796542bccd84b1U, 0xbd287d113e7779b2U,
  0xbd96a900be138ae5U, 0x3e5f47d23dfc8328U, 0x3e9ded0c3d4431e8U, 0xbe78f2f4bdd5bdeeU,
  0xbe1dd74bbe5723e8U, 0x3e218647be8c3ca1U, 0xbe07580bbde50d5dU, 0x3c89ddcb3eabf8a0U,
  0xbe2d376a3e526c74U, 0x3e854fd8bdf50455U, 0xbe3464b93daac3d4U, 0x3e4b9824be48d1a5U,
  0xbdd849643e5394bcU, 0xbe1656fbbe47f36eU, 0xbd729d883e49789cU, 0xbdfef0febe2d24ddU,
  0x3d5810b8bd81e7b8U, 0x3da6967c3c9dcb70U, 0xbe6201083d5dadc8U, 0x3cae1e123ca4c6ccU,
  0x3e4190363d18359bU, 0x3e80eb1c3e9737fcU, 0x3de296343e24aceeU, 0x3e793f853e788df5U,
  0xbe20db93be1eaacdU, 0xbe4ff92f3e7233bcU, 0x3d0065cfbe75ae6cU, 0xbe520325be7e36b8U,
  0x3ce83e123d252a66U, 0xbbe2753a00000000U, 0xb95d871d3cdd89eeU, 0x3ca2d27bbc7a86a5U,
  0xbc518c5eU, 0xbcf2012500000000U, 0x3d1453703cf3aaa0U, 0x3cd0415200000000U,
  0x3e93f6ef3e7d3200U, 0xbe39d6803d178590U, 0xbd094b0c3dcd5ea4U, 0xbcd4bde6be43fe07U,
  0xbd103490bdaed236U, 0xbe77c88ebe522f14U, 0x3e06d80cbe406a9aU, 0x3e6a4ec93e624f90U,
  0x3e80b86abcd17e07U, 0x3d6ea31ebdca1c26U, 0xbdf53cc4be27f29dU, 0x3da0ccadbe8e23f9U,
  0xbe5220e1be2f2bd6U, 0x3e3a13b83d59c7d0U, 0x3e8bde783e54977fU, 0x3e2766eb3e785fc4U,
  0xbdb5ca003ea8f1e4U, 0x3d969ab6be2de244U, 0xbe8eeb863e97e92bU, 0xbd1d15f33e292c23U,
  0x3ccea850be389e40U, 0xbe5508653d586da0U, 0xbde2d05f3e8bbac4U, 0x3dbd2ed7bdb14016U,
  0x3dcb2712bebe38afU, 0xbe02077d3e0cbd74U, 0x3cbc13cb3da7dcb1U, 0x3dfb9a233e005007U,
  0x3d6afb903e99a631U, 0xbe8e49b8be1e0e5eU, 0x3e58f691bde9ac97U, 0xbd9890213dc09cd0U,
  0x3d2a09a3bd093c51U, 0x3d2b6f2fbe8cb803U, 0x3e15bf6a3e2745e0U, 0x3e434bcb3e01510eU,
  0x3e52253abe8d5fd4U, 0x3e8e3903be4e7b12U, 0x3e00584f3c8b7650U, 0xbd6252cfbe8a5725U,
  0xbd29d549bd7ccc11U, 0x3e7e1a38be4281eaU, 0xbde172be3e52ed40U, 0xbe418a33bda27f1eU,
  0xbe16cefbbe928484U, 0xbe719ecf3cbd6390U, 0x3e7562653d128a09U, 0x3de9215b3e76ef38U,
  0xbe8f8b01be874e09U, 0x3caf42b1be50422aU, 0xbe05e5cf3e5147c0U, 0x3d43b771be5d6c80U,
  0x3e17c0a8bd54e490U, 0xbdd463373e69991cU, 0xbe6bf7c53e310aaaU, 0x3dd99c01bdd473a8U,
  0xbdb60295bd88cf58U, 0x3e7a5397bd02ec58U, 0x3e317edc3e7711c2U, 0xbd3270ef3d77e5c0U,
  0x3cb7e6e0be8cc6e7U, 0x3e44e2b4be7d8894U, 0x3e84ece8be54b385U, 0x3d0c8de33dc3d35cU,
  0x3d449f0fbe09c426U, 0xbdffb8903e8c2810U, 0x3c6bdfaf3e3cb919U, 0x3e4cebd73e01a34eU,
  0x3c2ceb203e22fca9U, 0x3e9a6b8d3e934182U, 0x3da36637bd1f7b01U, 0x3dc727ee3e6cf754U,
  0xbdb69a9c3e686993U, 0x3e1d9c54be43c1bcU, 0xbe66e63cbe3a6680U, 0x3e91f9213e287d01U,
  0xbd1d01683d89a92cU, 0x3dcd4431bd1df1f0U, 0x3e0677c3be672935U, 0x3d6d39b0be060dcfU,
  0x3de1f6713e232293U, 0xbdddeb3abe4c5761U, 0xbd1fcb70bc1068ddU, 0xbe07e88cbdb53c54U,
  0x3e57714c3dec1b53U, 0x3e355fae3e2d73e2U, 0xbde5eb48bc9b66f5U, 0x3e3b9af6bdbae48cU,
  0xbe501f83bde89ebcU, 0x3aa79e80be508229U, 0x3b681c84be0d9802U, 0x3dbe1537bdf34da7U,
  0xbd9f7aa4bdfdcd19U, 0x3e7f27f9be1d70eeU, 0xbd094e97be0ebd70U, 0x3e638cf8bdeeb91aU,
  0x3e1d41733dd17698U, 0x3dc028ff3de9b328U, 0x3e838f02be0cc6aeU, 0xbe695c9ebe5f9867U,
  0xbe9027da3e4c5c93U, 0x3e0d170a3e6cbce4U, 0xbe7b84b4be32a89eU, 0x3e214f66bdfc9f50U,
  0xbe770f86bca7caa3U, 0x3e92d596bce1bd00U, 0x3e2312ebbe6bc9c4U, 0xbcfeb6413e8b6d56U,
  0x3b47f2803e5f0691U, 0xbdcf8f933c74a5c0U, 0xbb48a48c3e7da02fU, 0x3d24e2343e21c1b6U,
  0xbdd725d8be517adaU, 0x3d9c6fb0bcff1cb0U, 0xbc8b47b0bd317290U, 0xbd718c3cbe88e359U,
  0x3e84f2863e8d7f96U, 0xbe84b2a4bdf05154U, 0x3e5622f0be8a97beU, 0xbe8062f63e45799aU,
  0x3dececf33ed25980U, 0x3d8ab728bdc8ae6eU, 0x3d2372323e80b4afU, 0xbdf221ba3daa119fU,
  0xbd5ad35cbc7c02b2U, 0xbddb9c9b3dd0ffbcU, 0xbca32d64be2321a2U, 0xbc6757873c4655e0U,
  0x3d0d53a5bddd8125U, 0x3e73016f3d115a38U, 0xbe387093be359541U, 0x3de70f09bd514d6bU,
  0x3e6746b0bde67153U, 0xbe193bbebdba723cU, 0x3d1824683e82ba09U, 0x3e0fb985be3aa4a0U,
  0x3e10905bbd13666aU, 0x3db0382fbe849817U, 0x3e4cf9fd3d4a3c04U, 0x3e0043fd3e0b0fafU,
  0xbe13fe853d3095f3U, 0xbe5b8fc8be88805cU, 0xbc53e0ba3ea46d51U, 0x3e25c3b83d880698U,
  0x3e0977b73e687a81U, 0x3d7e2a303da19950U, 0xbe00fb7d3e9de04cU, 0x3e5ef3003afd2247U,
  0xbe8ddc633c345806U, 0x3e41ec34be904573U, 0x3e5d8d843e40d967U, 0xbdaa8550be88fe1dU,
  0x3e036eb5be713c3fU, 0x3e222fdebe1c91dbU, 0x3e96867d3e8a898dU, 0x3d1b592e3bb42ba0U,
  0x3e28a66ebe85b565U, 0x3d5a57ca3e3cbfbeU, 0xbea1bad23c067913U, 0x3e5d6ceabe838c89U,
  0xbb4bb7d03d4eda97U, 0xbde1bc703e1284fcU, 0x3e96f9063cedc3ccU, 0x3e9aa7a4be6af63bU,
  0x3e3ef74cbe58f2a3U, 0xbd1873f1bd85ff3aU, 0xbe903f93bd95af1dU, 0x3df2c37abdb2800cU,
  0x3e612e733da39516U, 0xbe16863abbc9eec0U, 0x3d2baebd3e14de32U, 0x3ed48a56bdd15358U,
  0x3e8a4bd0bd4761b5U, 0x3e4876d63e7c1230U, 0xbeacae30be75f363U, 0x3e845acbbe4e1132U,
  0xbe14400bbe6d7e90U, 0xbe881e64be1280fbU, 0x3e9344a03e452b9eU, 0x3dd8dc8b3a028400U,
  0x3df5c6cc3e044c6aU, 0x3dcccd27be8919e6U, 0xbe046f54bd89cdb6U, 0xbd0af1babd9078eaU,
  0xbd23e7b83daa3447U, 0x3b46e8003dde5fd0U, 0x3e6ccb9a3e231cfaU, 0xbe2ff1173e14ef82U,
  0x3b9fa3403e836584U, 0xbe91517fbe424522U, 0xbe81a922be87f54dU, 0xbe85b8fcbe92bd9cU,
  0xbc68d5793ce5c3f8U, 0xbbae94b43b9e2032U, 0x3d010ca8bb3194baU, 0x3d05ee793cc53bf3U,
  0x3e0db8a03d5d86ecU, 0x3d37f2cb3e531c52U, 0xbe2b72b13e41abe8U, 0x3e4db7b8be5f93c7U,
  0xbdba7f513dee2955U, 0xbde9a15e3e0578d2U, 0x3e530e2abe00e864U, 0x3d3306903d9ac46bU,
  0xbe7fb1a23e799e1dU, 0xbd0dd5203e31e128U, 0xbd3e9b1a3debd740U, 0xbd50f7b63e492c70U,
  0xbe5050e13e7e8e7dU, 0xbe52965a3e711606U, 0x3d0363483e68a938U, 0xbe37b0f73e6c556fU,
  0x3d914f243d936ca7U, 0x3ad28e003e663984U, 0x3e269170be1bd7bcU, 0xbd932fb0bd9e64e5U,
  0xbe7a82adbdc23afeU, 0x3e10fbef3e3734f1U, 0x3e4d760f3e032fd8U, 0x3e600107bd822cdcU,
  0xbe3db6843cc2bc72U, 0xbe08e205be550580U, 0xbde01f0ebe2edc24U, 0xbd1b98bdbe564aa7U,
  0x3c39f8063e792de5U, 0xbe6b5ac0bc24c8e0U, 0x3e24d914be3e9e94U, 0xbd62893e3da6fd3dU,
  0xbe7384e13e7955a9U, 0x3d991ab63e3a183dU, 0x3daa75c2bc9d7bc0U, 0x3e7b08283e21cebaU,
  0xbe76cf0cbd07e9d3U, 0xbcba7998be222050U, 0x3d822f713e13990bU, 0xbe60e3253b9c2d07U,
  0x3deb50583e5c4f7cU, 0x3dd9e3103e6f253cU, 0x3b010400be439fd0U, 0x3c301340bd78c7b0U,
  0x3aa1c2003e754c7cU, 0x3e1f26543e161db4U, 0xbe643af03d927c38U, 0xbdd3f3883de85258U,
  0xbe3f0a343e5a3000U, 0x3db37480be24f3e4U, 0xbd4dbb20bdd2cd28U, 0x3e046978be686b34U,
  0xbdbc35e0bdeea398U, 0x3dd272c03d9680a8U, 0xbdb306a83e1c10acU, 0x3e4afe3cbe1102c8U,
  0x3e77af8c3a360c00U, 0xbe621a2cbe03fc00U, 0x3e138e503e20ccd0U, 0xbdee1d883d9239b8U,
  0xbda5e8d8bd9b9a48U, 0x3da872003d2202e0U, 0x3e7a44d8be04a660U, 0x3e6b14b03c388840U,
  0x3e2e5790be788bd8U, 0xbb983f80bd268e90U, 0x3d2ff7203e416e04U, 0xbd6cff803e1057ecU,
  0xbe523928be45fd98U, 0x3e7a1afcbd581f60U, 0xbe5a7d443df76df0U, 0xbe1911ccbe37f0b8U,
  0xbd6c5bb0bcb9c840U, 0xbe7b759c3d573d90U, 0xbe2052903d14d710U, 0xbe65b5a8be6d1014U,
  0x3e3aa8903e612ec0U, 0xbe7c37743e35c2a8U, 0x3dadd928be187840U, 0x3d8761e03e26994cU,
  0x3e445fbcbdf5fd78U, 0x3d643740be18b6e0U, 0x3e727fd03e4f6a74U, 0xbd2962a0bdb7f408U,
  0xbe61c6b83e39a0e4U, 0xbe0a56603e5e3be8U, 0x3e03de4cbd4be120U, 0xbe71c4b83e55204cU,
  0xbe5e8628be442070U, 0xbe11f78cbb77b500U, 0x3e36a74c3d27d0e0U, 0x3cb014a0bd408b00U,
  0x3db04b583db0de48U, 0x3e2990143c204d40U, 0x3e334bf03e7c0d9cU, 0xbe0a3c503e1cf158U,
  0x3de77420be6a6480U, 0x3a5d0000bc0d9ec0U, 0xbdb9ce003e0a0b24U, 0x3d889b18be0e39d0U,
  0xbe3faf383e7bd764U, 0xbdbdc090bd27a4b0U, 0x3d837b383e2a6ee0U, 0x3e62a3e8be16944cU,
  0xbd813608be6df48cU, 0xbd644dd03daf7f18U, 0xbcb058a03d96d238U, 0xbdb34ff0be6138c8U,
  0x3e3ebf6c3dc90668U, 0x3e21aa643e683834U, 0xbe696be0be0e32e8U, 0xbe2b77f4be6bea90U,
  0xbe2df348be72d088U, 0xbe1ce00cbc05a800U, 0xbde588283e289118U, 0x3e78813cbe04bfecU,
  0x3db23348be1d8108U, 0xbd0fa1803e02d9b8U, 0xbd845b803e25d51cU, 0x3c0c03803a8f0c00U,
  0x3e1db614bc681140U, 0x3df1c8a0bcfb3c00U, 0x3d6a4cc0be068fe0U, 0x3d1d1a403e0d8f84U,
  0x3db98218bcb08560U, 0xbd3c0770be00c10cU, 0x3d333640bd2d8e50U, 0x3d133bb0bd05fc80U,
  0xbd5bb0a03e027db4U, 0xbc8525c03d79ced0U, 0xbd07edc0bdc78018U, 0x3e479abcbe1940e4U,
  0xbe69604c3e791778U, 0x3e1abba4bdc96290U, 0xbc0111c0be51b6b8U, 0x3e6dfed83e131f18U,
  0x3dabc5b8be778a6cU, 0xbd7e5d703dc3f028U, 0xbe7de908bc781f40U, 0xbe08de5cbb808b80U,
  0xbe2a5308be685280U, 0xbd8a8348be3b5424U, 0xbd981b683e22db5cU, 0x3c31dc003e095930U,
  0xbe24c784bc94a540U, 0x3e2f33a8be7d0e80U, 0x3c87a7e03df59640U, 0x3e0619a83d1f29c0U,
  0xbdf53308bcaed820U, 0xbe0e58d0be458cd0U, 0xbe5d6390be6d3f7cU, 0xbe6da8acbe4c5cd4U,
  0x3df6ae083e1c82f0U, 0x3d1e45a03d126790U, 0xbc9718c03de850b8U, 0x3d285ae0be724734U,
  0xbe505fc03e0f626cU, 0xbe66cf00bd859ec0U, 0x3e1bca64bd997738U, 0xbd5d2900be089fc4U,
  0x3e245c053db39f0aU, 0x3e1edac1be2ce847U, 0xbcd6768bbe329998U, 0x3e16a080bd7c8499U,
  0xbbffcb45be5094efU, 0xbe48b0df3d4e688aU, 0x3e0d72d93e6a9a40U, 0xbc6190c03dd356bdU,
  0x3dbe1da9bdd696a9U, 0x3e0acfc8be577482U, 0xbd9fe967bddaff20U, 0x3e68f766bdef9940U,
  0x3d94de6e3d077e5fU, 0xbdbddb5e3d8c55f6U, 0x3e88374e3e70b2d4U, 0xbe37891f3e477eccU,
  0xbc82e7bfbdae7e69U, 0xbd5c82103e06857cU, 0x3e4df1d8be489054U, 0x3cee5de0bde08106U,
  0x3e74ebdc3dd0f824U, 0x3e326dfa3e72a612U, 0x3dcc92333dc497d8U, 0x3d56daed3e0c8e39U,
  0xbe238fe53e258ff2U, 0x3dcb65003e7176e6U, 0xbe6759b8be5cd250U, 0x3e0fe5a03e59b10cU,
  0x3e2965c73d3e591cU, 0xbdb6b7633d3a1834U, 0x3e89c4a2be45ff88U, 0xbe72804f3e09034dU,
  0x3df1bbb43df98b4cU, 0x3a5d901cbe445ed8U, 0x3de30ee5be520714U, 0xbce91d763d7c03fcU,
  0xbc19bfb13e88684bU, 0xbd09c1dabe5dafc4U, 0xbd25468dbd5a5620U, 0x3d8d8f213d8a00feU,
  0xbdc378363d3f736fU, 0x3e3b0f583e45898bU, 0x3e5f6649be5fbe28U, 0xbe2355843e3451cdU,
  0xbe3a8c55be3db621U, 0xbd8cbe663d88c105U, 0xbe4e66e8bdd7fee0U, 0xbd528a70bd248d1aU,
  0xbc94507bbdd82813U, 0xbe6634383e24b92dU, 0xbdb6919fbd230010U, 0xbdd59e153e0cfd43U,
  0x3e115a873e7cc053U, 0x3e1f3a25be7ca4b8U, 0x3d431fe0bcf305e0U, 0xbe7f85f8bd4bc765U,
  0x3e40bba3be46a884U, 0x3d912fa0be526b8eU, 0x3e28b4243ded60c8U, 0x3e559f583d6e14feU,
  0xbe45cea53e748bb9U, 0x3da40dc83e4a3562U, 0x3e01188a3e380accU, 0xbdb6fbfa3b899dc0U,
  0xbd7f5b133e6700e8U, 0xbe07a6d73d096ba7U, 0xbcb5ca8fbe7f8950U, 0x3be58af0bd70090cU,
  0xbe1540aa3e3e4cb2U, 0x3da5f0bbbe51a6e3U, 0x3e85726b3c17de00U, 0x3dd9a5c3bcc5c618U,
  0x3e42919e3d7f527aU, 0xbe2c108f3e6ea891U, 0x3e2120f93da78e10U, 0x3d4468823d22d566U,
  0xbd8041fcbde8211cU, 0x3dba90073e2b87e8U, 0xbdbae400bdf7e137U, 0x3bf8ff3f3e49b7ceU,
  0xbb9aaa803d0228e0U, 0x3e062ad03e3581b0U, 0x3e1840643e5b1158U, 0xbe5af364be73b074U,
  0xbde16a40bdbef3f0U, 0x3e17d480be1df528U, 0x3e6b77d43d294950U, 0xbd953ea0bd668aa0U,
  0xbe5ab71cbd2f7880U, 0xbcc3b740be187120U, 0x3e5ff6403dd99a88U, 0xbc016140be2599d0U,
  0xbe3998603e44817cU, 0x3cef7580be7cdb64U, 0xbe2a9f1c3e3b16ccU, 0xbe3f92bcbe5f6d88U,
  0x3e3616a4be075858U, 0xbe3646dc3e6a7decU, 0x3e1904303c722880U, 0x3e74b000bcc42fe0U,
  0x3e296424bdacfac8U, 0xbe6c81b4be3aac58U, 0xbe781fb43e0ba1c4U, 0x3df68aa83d0909d0U,
  0xbcef0400bc9d2780U, 0x3d9c76703dcab060U, 0xbdabcf18bc89cee0U, 0x3d9b6c483e32a968U,
  0x3dafd3003e572c48U, 0xbe4edbdc3dd56780U, 0xbd285c00be1e2e4cU, 0xbe154db4be653194U,
  0xbe3e8accbe73cea4U, 0xbcf8dee0be554004U, 0xbda4a4e03e1056fcU, 0x3e38b240bd623fd0U,
  0x3db17bf0be7ec454U, 0x3d9996e8be7b435cU, 0xbca8d4803de44610U, 0xbe7d60683dc5f718U,
  0xbe16be22bc36276aU, 0xbe153452be92195aU, 0xbe3a27f03e5e9418U, 0x3ddeb6d8be8a89beU,
  0xbe58dd3c3e6dc2d2U, 0x3e6180ef3d1df5e2U, 0x3d715248be231dd8U, 0x3dca03703e677088U,
  0xbe8191b4bd43d53aU, 0xbe607840be2c7208U, 0x3e0a6f583d3ac480U, 0x3e2725bcbe7e4c04U,
  0x3dc686fe3e09df33U, 0xbe6c53113e20f5fbU, 0x3ded5fd23e18954cU, 0xbe6d609bbe54e6b8U,
  0xbcccbe7d3ce64e55U, 0x3da5b5a83e3c135cU, 0xbc1775673e1c6940U, 0xbb037e003e1f9e2bU,
  0xbe494de5be7b515eU, 0xbe605b823cf7bf72U, 0x3e15008c3dc7d068U, 0xbe034f243da528a9U,
  0xbcfcafc53e70ddb1U, 0x3d6de998bdbd1a50U, 0x3e14e032bddcf950U, 0x3e4f1aacbb986130U,
  0x3daaa265bd420de0U, 0xbd716e703db2d3deU, 0x3e6eaf3e3e728560U, 0xbd15ba09be815fe7U,
  0xbe14bdf03e868f35U, 0x3dfe5551bd3e62b5U, 0xbd058808bd93bd58U, 0x3b40ab63be8117d9U,
  0xbde0dc873d268a52U, 0x3e93c223be54315cU, 0xbe0ea5d6be4bcfcbU, 0xbe8cbd34be2f00c9U,
  0xbd854a48be02e348U, 0xbe0ed11c3e23161cU, 0xbe7e47b8be7162b8U, 0x3d8ffde8be2b9840U,
  0x3d52aac03c509440U, 0xbe2d1bb43bdcc180U, 0x3df7bf903e020220U, 0x3d17d370bd900188U,
  0xbe2a20b4bb84b580U, 0xbccf4200bd9cd148U, 0xbd062a40bdc6bff0U, 0x3d0cd3203d60f980U,
  0xbdd0b9703bbdd980U, 0x3e587158bdc5c6c8U, 0xbe0c3ad03df99f88U, 0x3e48f7b43df06f78U,
  0x3e5b0cd4be2d8048U, 0xbe6d2784bb8fc380U, 0x3d6ee9f0be13f258U, 0xbcb45be0bd283ad0U,
  0xbbd7d280be320fc4U, 0xbcdc2d403e68dfe0U, 0x3c925c20bd94a3b0U, 0xbdcbf0c03e02dc14U,
  0xbc9b8580bd108670U, 0x3d2543503d83cb48U, 0xbe0823703da5eae0U, 0xbe522e90be1a7e08U,
  0xbe0b81083e1fb364U, 0x3e433e443c1d7d80U, 0x3ded7b08be043e7cU, 0x3d8fc3d03d285820U,
  0xbd6e5d60bda83ec0U, 0xbd370160bd31c960U, 0xbe4583b8bde6d910U, 0xbdc82e70bd7b1590U,
  0x3cdb7d803dca0608U, 0xbdfbcbd0be154184U, 0xbe613da8be767150U, 0xbe5d7d943d9e0cb8U,
  0x3e58d218bd5922b0U, 0x3dc73b203e1357d0U, 0x3e0e6a483dbca308U, 0x3d50d2303d8fe1e8U,
  0xbe4c72bc3dd2da48U, 0x3e009b503e180e00U, 0x3e03864c3cba3760U, 0xbe68ee103df202f0U,
  0xbe3dc848bc7153c0U, 0xbd7933f0bd872a50U, 0xbe388b183e549180U, 0xbdfe66103e167c50U,
  0x3e73967c3e58bcd0U, 0x3dde7e603e40dfacU, 0x3dbf54b0bb4a4400U, 0xbe785b6cbe6662a0U,
  0xbe106f5cbd9e3bd0U, 0x3dd73918bdfbafc0U, 0xbd469910be12f90cU, 0x3e0ffda4bdedd908U,
  0xbdcf7fb8be313f7cU, 0xbd963858be75af20U, 0xbe7b73e83ca1e0e0U, 0x3e5a1ae8bdf29f88U,
  0xbe6bec34be0da960U, 0x3d4afe003c781180U, 0xbe1cb8b0bd8e13c8U, 0xbe7d699cbe40ab0cU,
  0xbe19fbf83e03ab38U, 0x3e6e58c03e290c64U, 0xbe0969acbb733d00U, 0x3e630fc83e1344b0U,
  0xbe3cde24bdd3d7f0U, 0x3d5c0e10bd4829b0U, 0xbddd9128be207930U, 0x3e7ad5603d46bdf0U,
  0xbb8f72803e2516f4U, 0x3e7993683d6ce9b0U, 0xbd63c210be45abe8U, 0x3e4b728cbddc8e18U,
  0xbd182c643de457f4U, 0x3e0f53aebe15d722U, 0xbe6fbb9a3a985a00U, 0xbe68dcb83c9b878dU,
  0x3df52e903d28be64U, 0xbe237d8ebe478129U, 0xbd40a2f93e2b1b68U, 0x3d83ea703d34271dU,
  0xbe0a24983cb77ebfU, 0xbc2bbdc0bddf7842U, 0x3e471b243e67a78cU, 0x3c25fe12bd5e36bbU,
  0xbd7a828abe055583U, 0xbdb6dcf33de3f474U, 0x3d21313c3e2b2ffcU, 0xbdcf4407be545bc2U,
  0x3e3134db3e00f1a7U, 0x3dcdd5d83e2fda23U, 0x3a517de8b9fd7000U, 0xbe007c40bd3c4a9aU,
  0x3d30af883e6a9addU, 0xbe39ca993db7cc16U, 0xbdaa3b86bdaa1860U, 0xbe43f070be67455cU,
  0x3da6721c3e275b8cU, 0x3e27c927be3f7d88U, 0x38d900043df5dd98U, 0x3e3973033e3bbec4U,
  0x3e90e5a6bbd08a39U, 0xbcf4c160bcff1087U, 0x3da2af373d31e890U, 0x3c78de743c56d770U,
  0x3e23f93abd073c5cU, 0xbe7325373de88595U, 0x3e2e1b0cbe22aa44U, 0x3e67be203e1412ffU,
  0xbb40205a3d97cf8cU, 0xbcc201133da923e8U, 0x3d00c3993de7efe9U, 0xbe59e10b3d092ecfU,
  0xbd831a88bdbf4298U, 0x3d90dd203e14bfccU, 0xbe22440c3e03d9c4U, 0x3c62d1803e09e398U,
  0xbe2cc4b83e7a24c0U, 0xbcdcec403de8a088U, 0x3db18e983e003474U, 0x3e7681d8bdf7b580U,
  0x3cc809a0bd292950U, 0x3dd30ef83df1ad70U, 0xbe095d103e6f7ec4U, 0x3d9751b8bd713f20U,
  0x3e75917c3e16ab7cU, 0xbd7120303e3abebcU, 0xbe22734cbd80c6a0U, 0x3e7f2044be15b158U,
  0x3e5bf37c3e49b668U, 0x3e5fed883dabe960U, 0xbe00ca34be3fce34U, 0x3e235bacbe2ddab4U,
  0x3dd25ef0be691a78U, 0xbbc8d0003cac5e80U, 0xbe6dabbcbc7de0c0U, 0xbe1b9d90bd31c870U,
  0x3e2f9760be1063e0U, 0x3e3c483c3c59d000U, 0xbba0f200bdf0ca08U, 0xbe06da2cbbeb3800U,
  0xbe5979883d0d82d0U, 0x3d97a8283e6b0a18U, 0xbd008fc03e7bddd8U, 0xbdf874c03e2ffdc4U,
  0xbe70bbb0be791a9cU, 0x3e34e8043d5ed2a0U, 0xbca6a8203d6c5e10U, 0xbd7669503dc4a678U,
  0xbe6c6bc03e5c79b0U, 0x3e60d658bdd2c628U, 0x3bd02680bd5eab80U, 0xbdec0720bdaa18d0U,
  0x3d5d105abd965349U, 0x3dd92b123d830685U, 0x3e1ae025be7ed314U, 0x3e28b2103d02855dU,
  0xbdd86dd3be3cfcb1U, 0x3de234debe6fd3a9U, 0x3e342526be30b054U, 0xbe0fc3b43dab406dU,
  0x3e3177e53e84772eU, 0xbdcda0383e76c823U, 0x3e4d32dcbe465530U, 0xbd84d36bbe6ef740U,
  0xbe5d48debd48cbb8U, 0x3e3cc5c83e179f04U, 0xbe0bc3ae3cae8fc0U, 0x3ddcbab83e5476acU,
  0x3d0a60553e52a005U, 0xbe38c6c03d93348aU, 0xbe6e756cbde54f38U, 0x3db1c1283e81fac4U,
  0x3c997fe4bce98d64U, 0xbd6c6d303e74a7a3U, 0x3d8b46103e19ebf8U, 0x3df6b2293db46db1U,
  0x3de29f93be3b7c09U, 0x3dc4fae13c249e68U, 0x3e0a94363e1b06f8U, 0x3dca1296bce3426cU,
  0xbd0f241b3e3183a8U, 0x3e800028bdda484eU, 0xbc9c98da3e7368e8U, 0xbe71560fbe25b498U,
  0x3b83c365bdd33299U, 0xbe1ba2ddbe2b69b2U, 0xbe2e2f8f3d851658U, 0x3e44018d3da6ceffU,
  0xbea144c63e329998U, 0xbdbb80fd3e7f78e4U, 0x3e2e3bc4bd5c2c32U, 0xbe7dde4f3d8c8cf5U,
  0xbd53d96abe2dcff6U, 0xbe104276bdd4df98U, 0xbe026241bcbec640U, 0xbe76d95cbe06ae50U,
  0x3e2cdf83be0e5881U, 0x3e703d28be74ba50U, 0x3d7d8af2bcb99800U, 0x3dff4df0be6f2178U,
  0xbce0f70c3e3c48f6U, 0xbe177c683ba36b80U, 0x3ddaf0b6bdc6e788U, 0x3e1da520bdcfd34dU,
  0x3e6746c23e276d37U, 0xbc8535e03d3ad8d0U, 0x3e07119ebe28b63cU, 0x3e2f94b8be5f0cddU,
  0x3e2c6538bdc232d1U, 0x3e4b35fc3d3d6350U, 0xbe738b5c3dd6ca30U, 0x3b9bb900be114336U,
  0xbcd7f859bd6c0c0bU, 0x3de6c1083e7a4760U, 0x3e23f1203dc961a0U, 0x3d925740be30caa6U,
  0x3e0c6f26be77157fU, 0x3d9ae5583d97f420U, 0x3e5b74aebc431700U, 0xbe496af83e32ac2eU,
  0x3e05387dbe507168U, 0x3e2ac8acbcd9b280U, 0x3cb6a38dbe3726ccU, 0x3dc81e60be6f25b4U,
  0xbc9e725c3ccf1436U, 0x3e1ccb7f3dc23e78U, 0x3cf40a5ebd0c9b70U, 0xbe18fd343e48024bU,
  0xbe1478aa3db27d7aU, 0xbd4f4070bc2736c0U, 0x3e211d4dbde92dc9U, 0x3e5f80103de0a3b6U,
  0x3d763565bd38a577U, 0xbe0d9f55bda795c7U, 0xbe16be71be6b0c5cU, 0xbd96e2503de5fe24U,
  0xbc1c6ff3be75f118U, 0x3dfbfd2cbd27da70U, 0x3e4d2f1a3cee5060U, 0xbe26b8003e6d613cU,
  0x3ca9d4453e363d80U, 0x3e76d5ccbcd2dee0U, 0x3e43386f3e514dd0U, 0xbd102ce03cc0d252U,
  0x3ca2eaa9be8132e5U, 0xbe041bf1be76f098U, 0x3d98b7873e6acf98U, 0x3da18228bc63f379U,
  0x3d626a113df61376U, 0x3e4534a03e5456b8U, 0xbe38002bbe2d8838U, 0xbc850fc0be3f422eU,
  0xbe804001bd48aa02U, 0x3d9da2f0be3b03b0U, 0x3e1789f9be33a0c4U, 0x3df64e80be695cb7U,
  0x3e66ae2fbb66c5eeU, 0xbe50d8443e28cefcU, 0xbe10286abcd012e0U, 0x3d8432403e45e834U,
  0x3d547260be230ed3U, 0x3e4f4b593dbe8b98U, 0x3e493c843e3a1318U, 0x3e4065e03c92aeb6U,
  0xbc4085bd3bf4313dU, 0xbe0d8f66bd70b2d0U, 0xbd0646aebe06d758U, 0x3dd217d83dbe8d40U,
  0x3c81b1e9be3b8601U, 0xbe07b4babc898b80U, 0xbe74f6693d02d3f0U, 0x3d03e130bd630286U,
  0xbdedd00bbd3a95bfU, 0xbd921b073befcbabU, 0x3e2cf75ebe6e146cU, 0x3b6ac0003e281595U,
  0x3e8a4470bd205083U, 0x3dc20b373d9dd678U, 0xbe4a8553bdaff5d8U, 0x3e51bb04be24d9ccU,
  0xbe2ce61ebcc256ddU, 0x3e3cc0ec3e181f21U, 0x3e65b437be7ab1d0U, 0x3e613e90be177de4U,
  0xbe10e7493e77dba3U, 0xbe79690cbc6d5f97U, 0xbd3e5c653c9da3c0U, 0xbcc02ad6bd1cff93U,
  0xbd1434013e29f277U, 0xbc2971803dd0c665U, 0x3e5807da3e48d358U, 0x3c969be0bc9c7101U,
  0x3e2fed7fbe36bb74U, 0x3d800db5be329639U, 0x3da7544b3bbf5900U, 0x3e521919be6fcd9dU,
  0x3e8c5f203e333eabU, 0x3dcbd1dfbe3b318dU, 0x3da74593be2b7abcU, 0xbdf567513e8178d3U,
  0xbdaa772abbe8d91dU, 0xbe3c00d33e64b304U, 0x3e849f21bda47c40U, 0x3dff60b33e67e592U,
  0xbe34c372be0a515eU, 0x3dbcca07bd985af9U, 0x3e208182be385df8U, 0xbdfba933bd02a22cU,
  0x3da9b7e03e01c246U, 0xbdabc377be427d40U, 0xbe3e6cd2be780365U, 0xbe24ae96be242547U,
  0x3ce0418aU, 0x0U, 0x3d2ac7833cc60dfcU, 0x3ae68aec00000000U,
  0x0U, 0x3ca89e06U, 0xbb90c6943c9e7e20U, 0x3c3ee1b3bc4abf33U,
  0xbe128568bdfacff8U, 0x3e0ada90bdf74800U, 0x3e3a4c0cbb43e700U, 0x3dff32883e076870U,
  0x3cfeea003e18c364U, 0xbda955383d3f9340U, 0x3e1ad274bdaaa870U, 0xbe65cbfc3d51b8f0U,
  0xbe2814383e205a20U, 0xbe29b630be774144U, 0xbdf0e11a3db822f5U, 0x3de8f5a23e57ada0U,
  0x3cd899603d7a16a0U, 0x3e452b503e438f1aU, 0x3e5133f3bda6d346U, 0x3d886ccf3bfea5eaU,
  0xbe5092a43dd30ff0U, 0xbe0b3e78bc73d2c0U, 0x3e2fbcedbe2cf0a6U, 0xbd6ca50abdc66108U,
  0xbd9fd7d83dade920U, 0x3e0234ac3e04b319U, 0x3e7d5a9cbdc25a0fU, 0x3e92ae3cbdaf9b0aU,
  0xbe3857383e1439e2U, 0xbe5b2e7c3d9b0d30U, 0xbe36be87be769636U, 0x38f552d93cc936e0U,
  0x3d81fb98bd180f10U, 0xbe03efd83dad1950U, 0x3ce9198e3e33b0edU, 0xbe2cad9fbd5c37baU,
  0x3db7be18be265578U, 0x3ce56a40bd85ab38U, 0xbe4de3773da9e772U, 0x3e09bd063e58538cU,
  0xbe402ac4be3912a0U, 0x3e01b67c3e367d89U, 0xbd90a8b83e1c6c4fU, 0xbe160b0b3db8c614U,
  0x3da578a0bdd200a5U, 0x3e78a9c03ddca520U, 0x3e0932e63d4575bfU, 0x3e0c64f83cdaf040U,
  0xbe5cf6dc3d4d0f70U, 0xbe4ecfcc3e87d5c1U, 0xbe54d90d3e3c0366U, 0x3e90d23ebdf2cb20U,
  0xbe71634c3cbbce80U, 0x3e36b460be256e0cU, 0xbe2051dcbd0ee7c0U, 0xbe3bcf383d85dfe0U,
  0xbe5a9f783e301f4cU, 0x3e3d4234bdcb3c60U, 0x3e2757a8bcaacb60U, 0xbe10551c3df1a878U,
  0x3e7accf83e26704aU, 0x3e5811f43e1cedb8U, 0xbdf10fe0bdead600U, 0x3e5d16d83e418a74U,
  0xbca391c03ddb1c98U, 0xbe2dc260bdf24a95U, 0x3e590852bd1b5d3eU, 0xbd69f88fbde3d2d4U,
  0xbcd8d880bbfb4642U, 0x3d54a5f03d9b22f0U, 0x3e8093c83cb32098U, 0x3e255a59bd9d9d20U,
  0xbdc73fa83df59db8U, 0x3ddceb70be0e9b4cU, 0x3e668008bd84c611U, 0xbe3b5d093e622c28U,
  0xbc83ab80be297154U, 0xbe0a2768bd304290U, 0xbdc51a68bda00238U, 0xbc605b803d5459b0U,
  0xbd9740e8bdc5fb58U, 0x3dd7d5f83e649890U, 0xbddffbf83d29c940U, 0x3bab67003da5ed98U,
  0xbe618a14be7e5494U, 0xbd9bac98be260350U, 0x3e65b0b0be22b6a8U, 0x3e36bfa83ab8e400U,
  0x3e6f4e343e4559c0U, 0xbda5fd603e36a7d8U, 0xbdc970c03d5bb420U, 0xbdafdf48be760998U,
  0x3d57d6703e17267fU, 0x3e2ca498bd862228U, 0x3e82d2403d717566U, 0x3e04b769be44911cU,
  0xbde43fa0be5eb9d8U, 0xbbae0f003d28a822U, 0x3e0428abbd02a59eU, 0x3d06ce7b3e3d4bd2U,
  0xbe2908583d7e48deU, 0x3e6a93243d503ff0U, 0xbe807ec53e3f55c5U, 0xbd443c353e737e20U,
  0x3e7fec04be599b54U, 0xbdc6fe88bc5733c5U, 0x3e0e37c6bd9e580cU, 0x3d4443e53d4cd101U,
  0x3dcf1ff83e63c8b8U, 0xbe06ce703e596bd0U, 0x3e7258dc3e088d46U, 0xbc958cf13e550e5cU,
  0x3e674ca0bd32abf0U, 0xbe0bf9ccbc4dc9f5U, 0xbc83a8b63e64f894U, 0x3e32ce7cbd9a5298U,
  0xbe217b8cbd14fe3aU, 0x3d2222603e6f22ccU, 0x3e42011f3ddaf94aU, 0xbd866e063dfdac60U,
  0xbe1271943d83da68U, 0x3e296854bd8e28b6U, 0xbe16c1913e3a2d41U, 0xbe249ef63e5570f6U,
  0xbd262ff03ddf0e26U, 0xbd6ea600bd815268U, 0x3e1a90cc3e6b9cddU, 0x3de3608dbd3749a0U,
  0x3e62d05c3e1f197cU, 0x3e6e37c8bd20672aU, 0x3d2bda32bca6d6d3U, 0xbe3bda5d3e02787fU,
  0xbddfa490be47e4ccU, 0xbe2358e43dbafed8U, 0xbcb77320be542000U, 0xbdf60510bdac1330U,
  0xbce575803db8be88U, 0x3e466998be3ef5a4U, 0xbcd5bd80bdd95d58U, 0xbdcbebe8be0cefecU,
  0x3e73b0a03e84ac37U, 0x3dd6b8d83d3f33f0U, 0xbe05b4813e5a4c23U, 0x3dbd72e5be052270U,
  0xbd2e1fd03e556c64U, 0x3d9da8483cf66d0fU, 0xbc64acfabd8d86c3U, 0xbe2302fb3e158b05U,
  0xbd38b040bdf8eaf0U, 0xbe780f543e0098dcU, 0x3de36a68be0e68a4U, 0xbe50d610be72ebbcU,
  0xbe61dc243e694cbcU, 0x3e2b5d4c3dfb9650U, 0xbd9c1c683e52dfa4U, 0xbe64fc9c3e353ca8U,
  0xbd6b7bc0be756f10U, 0xbdb589803dc5b9a0U, 0x3e7ce03cbdc728e0U, 0xbdf460283def38b8U,
  0x3dfbfff83c272440U, 0xbd32c350bdf9f870U, 0x3e2e7bac3daa7948U, 0xbe5486b03e275728U,
  0xbe4dac343e49bdfdU, 0xbd5f6350bd9c5450U, 0xbe5159f3be5933f0U, 0xbdce8392bde5f180U,
  0xbe734f54be0c6ce4U, 0xbe4ba0b4be5dd77aU, 0x3e46725a3dd42f4fU, 0x3e4d069ebe6ab609U,
  0x3d510c103d159bcaU, 0xbe4a51a03df14190U, 0xbc4821c13d317f50U, 0xbe674049be7b8160U,
  0x3cb60e40bdd2c090U, 0xbd8e50d03dfef3e4U, 0xbe7698a73e45e918U, 0x3e0163b7bd8651aaU,
  0x3e10e610bda972a0U, 0xbdc14c18be7500b4U, 0x3ca386e0be1eb1a8U, 0xbc83b2803e2ff0d0U,
  0x3e4b72443e62d928U, 0xbd0ae240bdab5000U, 0xbe3765b0be50cd2cU, 0x3da97548be72624cU,
  0x3e38befcbc2d8080U, 0x3e47a30cbe6edf00U, 0xbb678b00bd97b4c0U, 0x3dd61f28be5f4610U,
  0xbcd2ad203e4ccba0U, 0x3b01b400bdda8ef0U, 0xbdf34bf83e499bd0U, 0xbe28929cbc806cc0U,
  0x3e575910bdbc62f0U, 0x3e7dc8a4bd8fd140U, 0xbe600670bc9bb260U, 0xbd7b4ac0be346f1cU,
  0xbd0e79903df32fe0U, 0xbdb9f9a0bc9b5c20U, 0xbe054f7cbe2c2c30U, 0x3e6c2800be54dac8U,
  0x3e0975bcbe7f5e74U, 0xbcab3ae0be7af4b4U, 0x3da6cf40be768690U, 0x3da0f6f03e4a868cU,
  0x3e6eaee0be3cb46cU, 0x3d5f9130bd8485d0U, 0xbd4718f0bd85bda0U, 0xbe73ef243d753d30U,
  0xbe7f9c90be3a8c85U, 0xbd5696b03e542428U, 0xbda18d733e4e0f48U, 0xbe9325d4bdfb50b0U,
  0x3e132da4be3d65b0U, 0xbe698f64bcddbe34U, 0x3dca89793e7baa01U, 0x3e45bc05be363b0cU,
  0xbdd22588bd8e7a0eU, 0xbe2987a03dd647b8U, 0xb99fa0c63e87b30dU, 0xbe181e9d3d47e290U,
  0xbe1790743e7f89b4U, 0x3d54f350b93b1688U, 0x3cc941563e4c87bdU, 0xbe66b8ac3e6e3070U,
  0xbe20bf90bcd2b014U, 0x3d1ab5c03daea908U, 0xbc50bde83c2cb0d1U, 0xbe01bf7f3e296fb4U,
  0x3c7a9e80be630bb0U, 0x3e2ad9243dd414cbU, 0x3e2f6e453e4e6490U, 0xbe0982c9be12a883U,
  0xbe636d04bdf91afbU, 0x3c96cf60be449d44U, 0x3e89bfcc3d5179c7U, 0xbe60eeaabbeb1700U,
  0xbdd546b8be2f3b5cU, 0xbe64cd9cbde8c1edU, 0xbe7e179cbcd8a1cbU, 0x3d96d595be4d30acU,
  0xbe1c3d78be6f92c8U, 0x3e652f28bdf4be70U, 0x3e748698bd637f00U, 0xbe5f97383e5814a4U,
  0xbe147c443e359b60U, 0xbe0bf6ac3e01ad30U, 0x3e6add943e78e0e0U, 0xbe1472b43d6eff10U,
  0xbdb021a0be485734U, 0xbd9669683e745d9cU, 0x3e5ccd74be69f454U, 0x3d42ebc03e6b4d90U,
  0xbdc48928bddcb498U, 0xbe17973cbc6c8100U, 0x3e7a454cbd9d1f18U, 0x3e1960e4bdc75458U,
  0x3e4a59943e2a5651U, 0x3e172890be471184U, 0x3ddeb2dc3c906309U, 0xbe47924bbe1036d0U,
  0x3d2403c03e31f3a4U, 0x3e2ed32cbd096953U, 0x3e6afa133e70a3caU, 0x3e026302bd3d836cU,
  0x3e6345303d959a9bU, 0xbdf0aa08be730c70U, 0x3dc9df7ebda51b89U, 0xbdd9742a3e211138U,
  0xbe520b3c3e0a69c0U, 0x3b49a8003e0559f1U, 0xbd92ef81be0e617cU, 0x3e416917be3355c7U,
  0x3ddf63f8bdf1d8a5U, 0xbe7e8af4bdd589c8U, 0x3e10238f3d8890a9U, 0x3e4b72ba3de11388U,
  0x3e2a79e4be195de4U, 0x3d0a6c303e511bfeU, 0xbe2510813e822ee0U, 0xbe55a6183d7fd366U,
  0xbd18f7f03e445a52U, 0x3dd5fca0be2c73f8U, 0x3e3771933d5afaf6U, 0x3e4a271ebe524240U,
  0x3e7ac4d0bdd61640U, 0xbe26b0d83e51e0b9U, 0x3e4a8b2ebd516994U, 0xbc875b7e3e562dc5U,
  0xbe7aed3c3d6aa589U, 0xbc830e803e550628U, 0x3d9d6253bd3f475bU, 0x3ae43f2ebe360e98U,
  0xbe378f903c447b00U, 0xbe078e74bd9b046cU, 0x3e2eddb03d6f57b1U, 0xbe7a3414bde1b15cU,
  0x3db6c820bc8f0f52U, 0x3d5172903df20f70U, 0x3e0f6ead3e848d21U, 0x3de44fa8be1b1788U,
  0x3e0c2fdc3cd01e60U, 0x3e79b80c3d32f71aU, 0xbe78ddbebdefcec0U, 0xbdb519fb3d681e9aU,
  0x3da551903cfa59c3U, 0x3de06f083df063f8U, 0x3d302504be1929dbU, 0x3e1df12c3e2b6d98U,
  0x3dbff530be2ae744U, 0x3e6dad18be0933baU, 0xbd927b983e49a190U, 0xbb24a7ccbd34a9ebU,
  0xbe7077483e614e2cU, 0xbe059d70bde56ca8U, 0x3ccb0996be41ee71U, 0x3d24ca883e4f0218U,
  0xbe4acd343d7f7290U, 0xbd889ae03ddaff42U, 0x3e7888dd3d47c16cU, 0xbe45abdfbdf767b0U,
  0xbdef6920be519af0U, 0x3de14f38be1e5a88U, 0x3e5f76c03e365b9bU, 0xbe225116bdcc8760U,
  0xbe393a00be6343d8U, 0x3e1f1cd8bd7279ceU, 0x3d5db1b03dfb3e61U, 0xbe4f75f53e3cc920U,
  0xbde79cc0bcde6ac6U, 0xbdfd03183c16d140U, 0xbe16a2573ddad9a6U, 0xbc09b844be733e5cU,
  0xbe4e744cbdb30ab0U, 0xbe0f486c3b8aff76U, 0xbe54d7e13c836d4aU, 0xbe34c46dbe0e5ed6U,
  0xbe1bd02c3c31336eU, 0x3c5e2040be070708U, 0xbe5da2c83d5f983eU, 0xbe6f7419bdf6c1f0U,
  0x3da10e80be14ef5cU, 0x3dc173f8be2b77d5U, 0xbe7206e13e18ffc6U, 0xbe1a52e63e4201d8U,
  0xbe3527443e7418a0U, 0x3d96b0e0be456664U, 0x3d347516bb7a427cU, 0x3c10c2943d6ac560U,
  0x3cc4f1a0be35bb74U, 0xbe459524be05200aU, 0xbe025be7bc5c01e2U, 0x3d97b8803c46f1adU,
  0x3e57fc583e85cb02U, 0xbe3a2ce4bdeb04a0U, 0x3e7e793cbe2b151eU, 0x3e156184be6669e8U,
  0xbdd941b8bd0f4e30U, 0xbe0374b43d0726a2U, 0x3e74f14ebd9da9dfU, 0x3e1904483dfdb954U,
  0x3e6b51d0be64dd58U, 0xbce05ca0bd853f80U, 0x3d139aa0bb7b9300U, 0x3e3d6a50bdddcd18U,
  0xbd0467b0bd3b4ca0U, 0xbe093fe4bdcaf918U, 0xbd43ecf0be711d68U, 0x3d938b383e2ce3c0U,
  0xbd7e4010bded7b88U, 0xbe1e894cbb3c8900U, 0xbe2fb148be436ca8U, 0xbc9f5e20b9cba800U,
  0xbe6a958cbdefe500U, 0x3e3271a83d6ddb70U, 0x3d9c23c03deb7878U, 0x3e206494bc87da00U,
  0xbe295b003e14f005U, 0xbe65a898be133cb4U, 0x3dc905b73db29a8aU, 0xbe026f61be0cc170U,
  0xbd9517d8be07b07cU, 0xbd120f50bb3739edU, 0xbc3bc6913e390e53U, 0x3e442dc2be565687U,
  0xbdfded98be451788U, 0xbde63b803d1fb080U, 0xbe203620be6e44ccU, 0x3dff75303e043b74U,
  0xbd37d720be09ccacU, 0x3e7a99d4bd26c0b0U, 0x3b84f1003d3d2be0U, 0xbe6c9704be13b288U,
  0x3df9d508bc051ed7U, 0x3df46028bb5de700U, 0x3e4ff642bdf527b5U, 0xbdaa1ef6be2e667cU,
  0xbe782a343e724834U, 0xbd3822d03e426720U, 0xbe409948be814c5eU, 0x3dbb9da0be1d423cU,
  0xbdf28488be0a2aecU, 0xbe1899983df3ca58U, 0xbdf3bc98bd042440U, 0xbdcda598be04d150U,
  0xbc467ec03e542a78U, 0x3df0d838be02b820U, 0x3e77fae8be5b3790U, 0xbe689d5c3e2dbc5cU,
  0x3e425018be25f0acU, 0xbb8fa000be554ec8U, 0xbd39c6f0bdd9bcf0U, 0x3c641800be7e506cU,
  0x3e45d5fcbe23e394U, 0x3e7d574c3e08f8b8U, 0x3dedeaf03e7d06f0U, 0x3e0aa9ecbe4df1c0U,
  0xbdf14f38be7d5ddcU, 0xbd98a3683e175694U, 0xbe5003d0bd0b71a0U, 0x3de00ad83e3c782cU,
  0x3e5e75343dacf7d8U, 0x3e53b40c3e4b0b34U, 0xbe69251cbaa8b400U, 0xbe3278a0baad8c00U,
  0xbe174c14be4ddbcbU, 0x3dcfec003e5b4dc8U, 0xbdc4e32d3e34b7f3U, 0x3e502ce23dc71998U,
  0xbe352de0be3366d4U, 0xbc5b9880bb56e4e8U, 0x3e111b9c3e3c56cbU, 0xbe4b0237bdfb340fU,
  0x3c9b2660bdaba668U, 0xbdd599303e41a270U, 0x3de086f8be337038U, 0x3da31de03e461890U,
  0x3dd2e7b03d9e36c8U, 0xbd28bc80be3d0308U, 0xbe4abfb03e6d949cU, 0xbe1abbe0bb5ae800U,
  0x3e3c6484be64a3f8U, 0xbe464a003e1138d4U, 0xbe30b5343e089120U, 0x3cb96d803e655f68U,
  0x3e7101c0be4377dcU, 0xbdd0ec98be4dd308U, 0xbe1e28fcbb23fa00U, 0xbd3543303e6dfb90U,
  0xbe202938be30a4e0U, 0x3e0c2544be56e5e8U, 0xbe469888be45d5b4U, 0xbe064c783e57dda4U,
  0xbe728330be78baa8U, 0xbd079850be3d32d8U, 0x3e58945c3b85f080U, 0x3bccb7003bab5300U,
  0x3e6118d8bdc9c5e1U, 0xbe4ccb10be13cc4cU, 0x3e757b643e70957cU, 0x3e21e8823dcd4b80U,
  0xbdd5a2283e197140U, 0xbd8492883e4e87b3U, 0x3df0c469bd6a66ecU, 0x3d85b5883db87f8bU,
  0xbe005f28be0edfa8U, 0xbe618928be34d6dcU, 0xbdf30b78be007ad8U, 0xbe26e0ac3e73ba30U,
  0xbe7098e0be1e7f14U, 0xbd636290be6e69d0U, 0x3c9de1a0bda9b210U, 0x3dd34d903d3f1da0U,
  0xbe5178cc3e1e2618U, 0x3dd194b83e37d8d4U, 0xbe4da111bd451d3eU, 0x3e8040e8be245604U,
  0xbdf61eb8bd1cc100U, 0x3e719180be051aefU, 0xbe227d733e2b9e67U, 0x3d431b96bda3b2b1U,
  0xbe228f48bddcf2b2U, 0x3deea3c0bdf46a08U, 0x3e35f89cbcd07aa5U, 0x3dce0b93be58cec0U,
  0xbe4f7058be43784cU, 0x3e15a82cbe2acbf4U, 0xbb0c94003ba0b702U, 0x3d3ad6333e005930U,
  0xbde72a08be21cf7cU, 0x3e5ca4683cf63040U, 0xbe3c07c8bce4f8c0U, 0xbe1378503e25b24cU,
  0xbe45b8a83dd60360U, 0x3dd94e503dd2e640U, 0xbe3507bc3e1598c0U, 0x3d9526703c0abe40U,
  0xbd6572b0be1362e8U, 0x3e6cedc83e31c874U, 0x3cba1f003dfc7738U, 0x3e0441cc3e476aa4U,
  0x3e3c98643e2fc508U, 0xbdf70960bba37600U, 0xbe354a5cbdcfcd00U, 0xbd3ab5a0be36cc44U,
  0x3e31d9443da6c839U, 0xbe50c264bdcecb60U, 0xbe6ba68cbd1bd1c7U, 0x3e5b34533dca1568U,
  0xbe448200bbfc8980U, 0xbe56757cbe185310U, 0xbdc1b298bdc0845aU, 0xbcde7fa5be7f9a24U,
  0x3e4322943c835dd6U, 0xbdea92183cf3a7c0U, 0xbcd0dbff3e8ebc9aU, 0x3ba4232e3e3597c0U,
  0x3e5b9a8cbda7bef8U, 0xbcd23fc03db36e0aU, 0xbe0d135dbe464e21U, 0xbe13c433be5013e2U,
  0xbd5390603dd9261eU, 0x3e0ca664be460a68U, 0xbd80fe15bdaa6c04U, 0xbe763300be20270cU,
  0xbe7cc5d43e3e3b64U, 0x3d8b55983cbb0864U, 0xbe54659fbbe8b43dU, 0xbd9db797bd06cf6fU,
  0x3e003a9cbde38510U, 0x3e1ad598be3fbb48U, 0xbd3db130be2ac8c4U, 0x3d4d43e0be005224U,
  0xbcd654203cd82580U, 0x3e1915c0be37e908U, 0x3c7f7bc03e7cac64U, 0xbe5ebf103daaac48U,
  0xbe1586e83e8f7f7fU, 0xbe464964bc07f640U, 0xbe01e5583ccd412aU, 0xbdd8b3753e1127acU,
  0x3c3f7000bdf1e1e8U, 0x3dcd09c83def423bU, 0x3e2f27c93e4f6d8bU, 0x3d9821973e2e46afU,
  0xbe2e0a8cbe5832cfU, 0x3e7738b83d2e7990U, 0xbe5648853e0eaf34U, 0xbe2eae093df21910U,
  0xbe66c6483e3a51f0U, 0xbdc3f4683e11e255U, 0x3e72838c3e0becaaU, 0x3c80e996bdaa474fU,
  0x3d5442503e737de9U, 0x3e5b0f1c3de0d6e8U, 0x3e35b4483d571d1eU, 0xbcf2a3053b01a000U,
  0x3cfb93e03d367590U, 0x3e1fe228bb290cb3U, 0xbd3ff4a03e548c3fU, 0x3c8ce46dbe4e9f15U,
  0xbe105144be2e98b0U, 0xbe1d04a43e49c6a0U, 0xbe6a35683da08aa8U, 0x3d946f80bc8675c0U,
  0xbd717f503e3fc694U, 0x3e7f91d83ae93600U, 0xbe03fe68be044100U, 0x3e46dba8be11aba8U,
  0x3e7d099c3dee5935U, 0x3e4ee9143e7226a4U, 0xbe0d97243d6017fdU, 0x3d7c961a3e64cd64U,
  0x3d582420bdc7cf68U, 0xbc95f6403e4568faU, 0xbe50f658bd33896aU, 0xbcf45e88be12f425U,
  0x3d4dc2303da33375U, 0x3e1adddcbdbda378U, 0x3da869b7be67a25bU, 0xbdcf9e493d0089c0U,
  0xbdcc4d983d1d1350U, 0xbd53f5003c05fb7bU, 0xbda30eb03dd17637U, 0xbd6b6314be65df3dU,
  0xbe1e95c83de00540U, 0xbc9470403e689b48U, 0xbe3992b8be76d814U, 0xbe775490bcb669a0U,
  0xbe288d403c5caac0U, 0xbd84d7a03d87e3e8U, 0xbdd72570be29b6fcU, 0x3e4bdd10bd230bf0U,
  0x3e6b48f4be6abee2U, 0x3e6066f43d941428U, 0xbd3010393e5bc731U, 0xbd511dda3e6ccba4U,
  0xba940600be122454U, 0x3e58d3303d586327U, 0x3df40210bddb736dU, 0xbab0ee193dc7f89cU,
  0x3ca72780be3f1838U, 0xbd70bab0bd8c34a8U, 0xbe7f6a98be2b888cU, 0xbe6beee83e643fbcU,
  0xbd662d003df645f8U, 0xbd81b1b0be0ca688U, 0x3e4b87803e4a473cU, 0xbe1a7fb43e6f5a34U,
  0xbda71b603d12989cU, 0x3d8669b03d86bb70U, 0x3e8628a63d636305U, 0x3ded68213e34d70cU,
  0xbdab0108be70fd08U, 0xbd2d8780bcbe38eeU, 0xbda0fcf53e6b3895U, 0x3e7f7dfabe4d2b11U,
  0xbdc6f0803e94e5b1U, 0x3e025c703d830818U, 0x3e0d8ca53b15d975U, 0xbac8d000be731638U,
  0x3e09445c3d514bc0U, 0xbd942ea8ba6bd82eU, 0x3de959d8bd51944aU, 0x3d8127d1be46824dU,
  0x3e558e04be25cf04U, 0x3e33e5243e7cee4cU, 0x3e3b5cbcbd2d08c0U, 0xbe6c68b8be0329f0U,
  0x3e2bb64cbe67f8ecU, 0xbe4180343e36c67cU, 0xbe0c26c8be0426c8U, 0x3d6c0620be48d604U,
  0xbe08325c3e192013U, 0xbc07e7c0bd0683f0U, 0x3e8aed48be062b5bU, 0x3e973fc4be07b4acU,
  0xbcda2e803d2d8230U, 0x3dd390803c297c37U, 0x3d9a07323e7c3335U, 0x3e318412be38d334U,
  0x3d05e1d900000000U, 0xbd018c0a3d134531U, 0x3d3b7b7dbcc1e53cU, 0xbc827d4100000000U,
  0x3ca3b5a5U, 0x3d3c729a00000000U, 0xbc64bdefbbf70e5cU, 0x3d504a843b4b07c2U,
  0x3ce4627400000000U, 0x0U, 0x3bb03d6ebcb1a78dU, 0x0U,
  0x0U, 0x3ca27a023c34afaaU, 0x3beb415cbcf2fa65U, 0x0U,
  0xbc6879fd3caac65eU, 0x3b89ae483b9178daU, 0x3c9c2862bc4589b7U, 0x3c0b1ff9bccc0201U,
  0xbc49bd1b3cc9d82cU, 0x3afb9a36bc18bd21U, 0x3ca2bd1aU, 0x3ce99b2e00000000U,
  0x3c33aa2e00000000U, 0x0U, 0xbc2681d800000000U, 0x0U,
  0x3cbbf35500000000U, 0x3c2b5ba600000000U, 0xbc1035aaU, 0xbba1516a00000000U,
  0xbb57e0dd3d27b0a4U, 0x3d18da5500000000U, 0x3d77082b3bd3b8ceU, 0x3d0ac44a00000000U,
  0xbc9236a0U, 0x3bb94620U, 0x3d3c6bc33ce7aca2U, 0x3d3a88d500000000U,
  0x3dcd1a333e8ef004U, 0xbce8ea29be611aa5U, 0x3e1a09cf3e5e1f82U, 0x3d87d38dbe2c6d6bU,
  0x3e500cb73e3c3e24U, 0xbe9763ae3c2a05aeU, 0xbe08c6c9be281bbfU, 0xbe161972be374040U,
  0xbe35c7cbbe827b69U, 0xbe60d88ebdfb4381U, 0xbe4f709a3e473602U, 0x3de84877be1092e9U,
  0x3e24803cbe85cfebU, 0xbe8bfb983e771426U, 0x3d378b43be6fba83U, 0xbe54d6a73c820853U,
  0xbe36e6733dc7b43eU, 0x3e3861093e21387aU, 0xbdce7cc23e3b446eU, 0x3ea2247dbe311c68U,
  0x3e556490be684230U, 0x3e512b2c3e1601e5U, 0x3e3e2ae1bdd2ba02U, 0x3e850de63eba42b5U,
  0x3d021d2d3e93440eU, 0x3e1df92cbbe067a1U, 0xbe44a5f8be76e0e2U, 0x3e91001ebe2a5b5aU,
  0xbdf9b00a3e25b130U, 0xbdf331abbe3681cbU, 0x3eaef9953e511b73U, 0xbdbda612bdcc6605U,
  0x3e01b37b3d5f4f1dU, 0x3de7b148bd3e042fU, 0x3e42734cbe4c3b7eU, 0x3e0d3c7dbe27ad51U,
  0xbd48e3863e9ee467U, 0x3d615c26be1ba342U, 0xbdbb39893dade66dU, 0x3ea22b17be3b8186U,
  0xbe38e3c6be5b623cU, 0x3e057f3f3e968d21U, 0xbddebad0bd4a451cU, 0x3e9ce5b83e6b132aU,
  0xbe2390033e948e5eU, 0x3df0f522be828d39U, 0xbe8facebbe273c43U, 0xbe6bc66d3e754a07U,
  0xbe40602ebe67be83U, 0x3e1969313e1616acU, 0xbe97353fbe592271U, 0xbe1ca370be2ea316U,
  0xbe49fe41bbeaf295U, 0x3dc7ddb9be2fc61eU, 0x3e2f7ab73dcddbbaU, 0x3dbf7376bc9f75d1U,
  0xbe7a91843ea2c018U, 0xbe1fc61e3e463e73U, 0xbcbd4efd3e7bc486U, 0xbe354abcbd1352f2U,
  0x3e7d13623e9c6d9dU, 0xbdf4c9bcbc933910U, 0x3e1d28203dbaaa83U, 0xbe6fce8fbe492a93U,
  0x3e8f71183eac522eU, 0x3e4a81e83e2771c9U, 0x3cddbb8d3e2ac282U, 0x3e8966923ea1d5e0U,
  0xbc9cd0b8be84fbd6U, 0x3e866d30bb649c2fU, 0xbdfb7e0f3e4d9deaU, 0x3ea983d83df3a5edU,
  0xbe8c6162bc798360U, 0xbe9820a4bee618c9U, 0xbdfb1df2bccc82cbU, 0xbdd117a0bda90d06U,
  0xbe82a2c93e77e057U, 0x3e993af23db5880dU, 0xbde70b4c3e76e402U, 0x3dfd60a73e1ac575U,
  0xbe8f6d693d1c9696U, 0xbe4ed794be90c1e7U, 0xbe4b943f3e52d3b7U, 0xbe3535303c7d7200U,
  0xbe098cd83e579a1dU, 0xbda721c5be91f803U, 0x3cff14533d85736fU, 0xbcda3c3d3e38aac9U,
  0x3e1b4f77be38dbb2U, 0x3d1d98093dada3bdU, 0xbca87e9c3d4d2f08U, 0xbbf82da9bdcc3a1cU,
  0x3e459d02be30a185U, 0x3d2f51603dd48987U, 0x3e4357d2be7adc01U, 0xbdb5fed33e4a7d42U,
  0xbe4c57e3be793463U, 0x3e49070a3e272882U, 0x3e1542993d535929U, 0x3e09f074bc619964U,
  0x3e0700d63e156422U, 0xbe8cf41ebe4c737fU, 0xbe65eddb3da45200U, 0xbe9205563e4de9e1U,
  0xbd5280ee3e2b2c71U, 0xbd9beb513e4e8854U, 0xbe11bf14bde7e090U, 0x3dcacbde3d91c88dU,
  0x3d8bf7f13dc30c6eU, 0xbcaccd123c24253cU, 0x3e2156e53d4278e3U, 0x3db89dea3d8b1ebaU,
  0xbc4d12e63e08a8abU, 0xbe64be9f3e4d43afU, 0xbd779daa3e264f89U, 0x3e333bebbd23981eU,
  0x3e1113713e37b784U, 0xbe201f143d821ccfU, 0xbe39ac70bc2bf0a3U, 0xbdc4f475bda91144U,
  0xbdd0ab573e6c4c9dU, 0x3bc9b63e3d4d7e08U, 0xbd77d78cbdbe717eU, 0xbcc9ed2cbe61236eU,
  0xbe58175dbe2825a8U, 0x3e833ae9bd950061U, 0xbe067ea3be11d803U, 0xbdcd86653e97f5eeU,
  0x3ea2a355bde21192U, 0x3ea4c1d13e90c098U, 0x3e9fe107be84b766U, 0x3e44b0e3be799176U,
  0xbd05c907bd687e1cU, 0x3e25efa5be5f747cU, 0x3e2e96be3d8056b6U, 0xbe578785be788fe2U,
  0x3d9ee77cbe412fc2U, 0x3ca50e123e6f7c28U, 0x3e4655533d53462cU, 0x3e8a3305be4f3029U,
  0x3e2775733e5c7135U, 0x3e054b8a3bfe9f63U, 0x3cd6441e3d661e84U, 0x3e7ad64d3db0e69fU,
  0x3d4335c0be3688b5U, 0xbd822884bda543aeU, 0xbda9e72dbe58c755U, 0xbd57b3973e09e61fU,
  0x3e668d9d3e6f0babU, 0x3e6d8244bd8fcae3U, 0x3a5bbcccbe3ef64fU, 0x3e303779be9549aaU,
  0xbe88d75abdb59b6eU, 0xbd72377a3e015932U, 0x3d145d243d1f4bdbU, 0xbdb1116d3ea84b95U,
  0xbe64af563dded2b9U, 0x3e42b62abe116fd5U, 0xba2118d0bc543bedU, 0x3e104728be89d9d3U,
  0x3e4924a2be048221U, 0x3e801c6e3ddd37f5U, 0x3e5c81543e6619aaU, 0x3e5f1abe3cea644fU,
  0x3d9ec9f0bdf52cb8U, 0xbd077b283da5abc4U, 0x3c73c85a3e1dd36fU, 0x3e577eb7bd46417bU,
  0x3e45ae7f3ca4c82fU, 0x3e089577bea36facU, 0x3dafb797be142ca8U, 0x3dc46e89bdf171b5U,
  0x3e018a2a3e02ac84U, 0xbe2fa75abd33526fU, 0x3e7625113e840c1dU, 0xbdbeb45c3e6fbf1cU,
  0xbe9304433e808500U, 0xbe5af266be8587c5U, 0xbeaedfac3db0496cU, 0xbe59ffacbe5eb043U,
  0xbc1e4c87bdffc682U, 0xbe228ac13e9f6aeaU, 0xbdc2c9f1be4d989bU, 0x3e41180fbe375c10U,
  0x3e47a7133e8e1633U, 0xbd8e6c0e3e766c1fU, 0x3e5c6fc2bdd998adU, 0xbe4031373e50fb7bU,
  0xbe6bc8283e874ee3U, 0x3e412241bcd10de0U, 0x3d9f441d3eafc0f3U, 0x3ac82ab2be3b86b5U,
  0x3d1905573bf32f26U, 0x3d0c6a553cfa808fU, 0x3d1c1eeabcaddf61U, 0xbb9b65113c90d104U,
  0xbca7e9c1bd1bcacdU, 0x3c0128803d003d4eU, 0x3c1cc5aa3ca52ec4U, 0x3d00df333c0b5bf4U,
  0xbe05f67ebe3d6d22U, 0x3e3f2dbdbe616a35U, 0xbe123eedbcb4671aU, 0x3e7ccc9bbe8172d3U,
  0x3e9a4967be0a286eU, 0x3e31cae7be51e8f8U, 0x3ea43c1bbe4da21eU, 0x3e8f7771be435f1bU,
  0x3dfcacb93aa7191fU, 0xbd2fdb4cbe4af560U, 0x3e0580883d0dcfe0U, 0xbd881eb8be9186a1U,
  0x3e01db083e269f2fU, 0x3bceed18be2a4ee0U, 0x3db81cd43cd81374U, 0xbd527fc3bca161afU,
  0x3d4cc9733caabd74U, 0x3da8b277be45d991U, 0x3ea412483e992738U, 0xbe1facf4bd5a0cabU,
  0xbe788484bdbb5faeU, 0xbd0586a33e2e7f18U, 0xbe0a0b33be3190b3U, 0xbdf178373e03452cU,
  0xbe5c5cf5bd4a1403U, 0xbe14fa2e3e5f9be1U, 0x3e2504483e9a17eeU, 0xbe0add4abe37bed5U,
  0xbded3a61bdb13be5U, 0x3ea31cbd3a96fd26U, 0x3e8a71e5be018408U, 0xbe430d46be706b8bU,
  0x3e84f04f3c3601baU, 0x3c8a9a403e5cb899U, 0xbe4bb5653dc3c0eaU, 0xbe1e82c93daeeb89U,
  0xbdb383ac3e1cbfceU, 0xbe5dd66f3d9118d4U, 0x3cc8f36fbcb8a842U, 0x3dd32dcbbb997621U,
  0x3e71d9f13d58e7d0U, 0x3e397fe2bd2dad98U, 0x3e1f60b33e4b7c72U, 0xbc5b9eb4be8b39cdU,
  0x3e91b15ebe203b80U, 0xbe7564a7be0a2af2U, 0x3c1d0b563e359b8aU, 0xbe68d632bdde9aedU,
  0xbeb293ebbe7e73f7U, 0xbe4e00e4bea5fd3bU, 0xbe853c41bd15de0aU, 0x3e2eeece3eb60dd7U,
  0xbe2364433e8366fcU, 0x3e5e5f343e15ed9cU, 0x3e31ca56bcc86ce9U, 0xbeb19ef53e1da67cU,
  0xbe0f40b83e8bee42U, 0xbe4a0da9bda20b04U, 0x3d0253c93e22ce56U, 0xbe5d47f8be29a1f0U,
  0x3d8da8e1bcf3ff75U, 0xbe2e9954be92a2c8U, 0xbd49585cbe74372dU, 0xbda27b81be6d7320U,
  0xbd779f7abeb87467U, 0xbea50baa3c9a306dU, 0xbd90a652bcbcb4a8U, 0xbe8016a5be5a12f4U,
  0x3dbd27823e16a1eaU, 0xbea327c9be80db77U, 0xbe071bc4be02bf95U, 0xbeab5a903d337d4bU,
  0xbe6feea43e771c12U, 0xbc6a7f82be8bff1fU, 0xbe1de9e1be78de92U, 0xbe4621a53dd62743U,
  0xbe84e5fabe18583dU, 0x3db401273e6e5cebU, 0x3df5458abe465736U, 0x3cdeccfebddce7aeU,
  0xbe1e9c143e7de3e7U, 0x3ea3b92c3e11a18fU, 0x3e0d5d6c3e06115fU, 0x3dab7a393d7a1606U,
  0xbe7bf7e9be7bf2d3U, 0x3e42be20be998b40U, 0xbe1f64f43de875eeU, 0xbe72d9c53d3888bbU,
  0xbc5c080e3e5addafU, 0xbe63746bbe6067cdU, 0x3e620ae6bd8a09c5U, 0x3e6a9656bd3372e9U,
  0x3e85294b3e23f1c1U, 0xbab69f55be0f2234U, 0xbe721c0bbe97e973U, 0x3e6782463d5edd52U,
  0x3ce6fa303e5ff127U, 0xbd9fce91be3aaf0cU, 0xbd6fe16b3e2e5e84U, 0x3dcae4533d8a437eU,
  0x3e8efc3d3c796026U, 0x3d7b31d83e1731fbU, 0x3d3165f7be508e98U, 0xbd773320be5ba61eU,
  0x3d78469fbd448422U, 0xbdeb018a3e3c2205U, 0x3dced6413e49f595U, 0xbd49cb14beb0bdabU,
  0x3e4eae9ebe412cd5U, 0xbd43e9f4bb8f4b0eU, 0xbe5cc5e4be21f309U, 0xbe3a15b4be08c11fU,
  0x3df85c1ebe47a249U, 0x3e306c50bdf277a5U, 0xbd899afcbd396625U, 0xbd85352abe22bc73U,
  0x3e7bd28dbdcd0e1cU, 0x3e328835be3ff3c4U, 0xbe87bd7e3c932194U, 0xbdaefbccbe2c32b3U,
  0x3da377cc3d9b4b7cU, 0xbd14e85b3e41279aU, 0x3e28e8393e529f12U, 0x3e8907efbddd9ecfU,
  0xbe4775d4bcc1e64dU, 0xbe4122fabe46706aU, 0xbe857416be4c88b6U, 0xbd7c9c19be0e6cdaU,
  0xbd8ff5c83ea3b0a8U, 0x3dbab6df3de32392U, 0x3ddb29f3be02b573U, 0x3ca3b59abe9f6030U,
  0x3cbb390a3ca8aaf6U, 0x3e3b4cbabe9c8a08U, 0xbe17890dbde94c85U, 0x3d940c80be6c0b65U,
  0xbe1da3bebe7f7eaaU, 0x3d88d253be0c7271U, 0xbaec7e993e5d6b20U, 0x3dc0693bbe320045U,
  0xbdb89c213e5bc375U, 0xbe8216823e701d7aU, 0x3e62d2f33da5052cU, 0x3e7a563e3df20523U,
  0x3d2634283d1aaabeU, 0xbb80f3f6bd203f2eU, 0x3a4b8965bcb287acU,
};


ai_handle g_ae_model_weights_table[1 + 2] = {
  AI_HANDLE_PTR(AI_MAGIC_MARKER),
  AI_HANDLE_PTR(s_ae_model_weights_array_u64),
  AI_HANDLE_PTR(AI_MAGIC_MARKER),
};

