/**
  ******************************************************************************
  * @file    ae_model_data_params.c
  * @author  AST Embedded Analytics Research Platform
  * @date    2026-03-25T21:01:45+0900
  * @brief   AI Tool Automatic Code Generator for Embedded NN computing
  ******************************************************************************
  * Copyright (c) 2026 STMicroelectronics.
  * All rights reserved.
  *
  * This software is licensed under terms that can be found in the LICENSE file
  * in the root directory of this software component.
  * If no LICENSE file comes with this software, it is provided AS-IS.
  ******************************************************************************
  */

#include "ae_model_data_params.h"


/**  Activations Section  ****************************************************/
ai_handle g_ae_model_activations_table[1 + 2] = {
  AI_HANDLE_PTR(AI_MAGIC_MARKER),
  AI_HANDLE_PTR(NULL),
  AI_HANDLE_PTR(AI_MAGIC_MARKER),
};




/**  Weights Section  ********************************************************/
AI_ALIGNED(32)
const ai_u64 s_ae_model_weights_array_u64[3343] = {
  0xbdad42f93e27d942U, 0x3d71ae3ebd429688U, 0x3e884f44be055784U, 0x3e50ccb9be76489aU,
  0x3d9a7647bd476d2dU, 0x3e741b003d79fbadU, 0x3e2c2d33be2032eeU, 0xbdcfdf27bd38d7abU,
  0x3e8d4b74bd68ab4aU, 0xbe8fc6493d865691U, 0xbe8e905bbe5939beU, 0xbd7ad0c83e889dffU,
  0xbe92d4593d9138f0U, 0x3d92133ebb5af03cU, 0x3e234d333e3d1713U, 0x3e940046be11cf2cU,
  0xbdc38820be431f2cU, 0xbd8ee2223e949fd3U, 0x3e71f7e33e8e9794U, 0xbe849d273cae5e92U,
  0x3d8073c63cc4e11bU, 0xbe3e93ad3e4ca8f1U, 0x3cf1832cbdee10c2U, 0x3e1bb473bd604cc8U,
  0xbe8c95fa3e140329U, 0x3bf1a72fbce7a3d1U, 0xbd8433243e3ec0d4U, 0x3e45b7db3d98aeebU,
  0x3d3d41d13d84d3fcU, 0xbe065fc03e03f8a2U, 0xbe2052333d29eb26U, 0x3d955f3dbcd7b18fU,
  0xbe97be22bdbe0674U, 0x3d3b62cdbe738ff4U, 0x3e827f7e3d2b728cU, 0xbde39619bb10cf31U,
  0x3db473f13e88e9a3U, 0x3e8906473da67306U, 0x3e56c1da3da51aecU, 0xbd836da0bd955e5dU,
  0xbe6d38883d83bcb6U, 0x3d90f29e3dd915d3U, 0x3e4a824dbd885638U, 0xbc9927ef3dece9b8U,
  0xbdc08356be2dea29U, 0xbe823e9a3e0e99b1U, 0xbdbd36743e8b2c2aU, 0x3e59d67b3e601878U,
  0x3e4c3f99be818502U, 0x3d48d5afbdd7c98bU, 0xbea0f02fbe89c670U, 0xbdc94d94be826deeU,
  0x3c3de218be6a09caU, 0x3e15ea16bdf35ab8U, 0xbcc95040be7cd48eU, 0x3dacebd4be04c205U,
  0xbd0c5fd8be5cd319U, 0xbdf52ec0be342641U, 0x3e315ef43cc19c10U, 0xbe44f24cbbed30c0U,
  0x3e9917e0bdb8b640U, 0xbd031d603ad06200U, 0xbe79ff88be7f198cU, 0x3e27cfe9be0878efU,
  0x3dc7fba6bda01d66U, 0xbe8b175cbe574d88U, 0xbe9a9f10be906d49U, 0xbd27f10d3de051beU,
  0x3dd1460abe4318f6U, 0x3e892b40bc742c86U, 0x3e6bc0c93e54a6ffU, 0xbe3812763e5f2ac0U,
  0x3e018b32be933a19U, 0x3e847384be882b4dU, 0xbe25854bbdb9be90U, 0xbe1c12a5be6fdeb0U,
  0x3c7088803e68fb08U, 0xbe48eea0bdb791c8U, 0xbe83b5dd3e489fe0U, 0xbe1dd4983d637708U,
  0x3dbd87d8bdc92d14U, 0x3e00310bbe85b227U, 0xbd0c5e6ebe501beaU, 0x3d7b0b313ea5022dU,
  0x3e51c933bc9c4d70U, 0xbe32883fbca9330eU, 0x3e9b572f3e5fe8ffU, 0x3e4a688f3de50271U,
  0xbe0d864a3da66a3aU, 0x3ca21376be81edfdU, 0x3cca045dbcb2590bU, 0xbe4ae3e4be1c3336U,
  0xbdd7a4803e8accb7U, 0x3e8ad4433e3fe02dU, 0xbe8924413ea36f45U, 0x3e6c87e63e682029U,
  0xbdabd2563c98d551U, 0xbd54b2f43e50420fU, 0xbd9496833e8890bbU, 0x3e896568bcb3fcf1U,
  0xbe89372d3db93133U, 0xbdcc8215bddeea91U, 0x3e51f689bdb9ded8U, 0xb9763557bdd95ab2U,
  0x3da2acdfbe119bbeU, 0xbdbc47a8be999fe5U, 0xbd14baea3cf43b1fU, 0x3ddd57e53c6b4ba5U,
  0x3e0168643e24a9c4U, 0x3e895fb8be031002U, 0x3d8878403d8c62c5U, 0xbe565b433c2fad10U,
  0x3c0a6ebebe5840aaU, 0x3e675c1b3e70e1f4U, 0xbe8e4fd7be137e7dU, 0x3e57f589bcec00edU,
  0xbe9439e63d01905aU, 0xbc8679acbd951572U, 0xbe7ef0073e0ebad4U, 0xbe8c1132bde64291U,
  0xbdb3fd783e635e6cU, 0xbe856cc7bd3bd0fcU, 0xbe799d34bd9f194fU, 0x3cbd29423de64d2bU,
  0x3e8679c03ea09dedU, 0xbd092fe5bbafe6f7U, 0x3e952616be81ccdcU, 0x3db0bfcf3e8ae864U,
  0xbe82b9163e14b6d8U, 0xbe25e5863e95bff3U, 0xbced70b0bcbe3ba3U, 0x3e013aafbdd27b9eU,
  0x3c6212493b3e163eU, 0x3e5d03d9be52e0caU, 0x3ca58722bd6268a0U, 0xbde703fa3e5660d6U,
  0xbe23688b3e5d9c35U, 0xbd574124bca1a6fdU, 0x3d2de3c4bd5d2d51U, 0xbe0b9fb13e8131f6U,
  0x3e7174c53e91954fU, 0x3e7c8cb03d813b72U, 0x3e81fd523db42c66U, 0xbd12198abe5a473bU,
  0x3c1286803cab656fU, 0xbcb731e73c9e3615U, 0xbcd7a5ac3c8b5f38U, 0xbcba68fa00000000U,
  0x3ce322d800000000U, 0xbcbd7b373cb354d5U, 0x3cc3704b3c37f023U, 0x3c1b436f3c9fc2a5U,
  0xbe3ca77abe8d49feU, 0xbd57d5b8be8938e5U, 0x3e323690bdde9e64U, 0xbe397bfe3cca3de0U,
  0x3e1e6c1c3d9ba074U, 0x3e77959cbe85c186U, 0x3d5558e8be87e901U, 0xbd464f343dc0f3ecU,
  0xbe5168c6be80bdd7U, 0x3e0e303cbe6ba81bU, 0xbe7236643c691ea0U, 0xbd0ce0d83d0dbcd0U,
  0xbe6ab4ce3e92e972U, 0xbe8c72ecbe85ea2fU, 0x3dbaaf9cbe866438U, 0xbe87a51c3e7e7c2cU,
  0xbd8ea0763caeba30U, 0xbe4c35c43df02078U, 0xbe1b081a3e64a2ccU, 0x3e6708d43e6720e4U,
  0x3e77a7603da47b90U, 0x3ddf2acc3def6a58U, 0xbe2965843e782520U, 0xbdbbef1abd3cd24cU,
  0x3df2ab54be125dbeU, 0xbe2a41663df71e08U, 0xbe88a732bda4fbbcU, 0xbe54a202be84bc69U,
  0x3dfa9160be4323f4U, 0xbe7039fabe122b55U, 0xbe6f26063df902dcU, 0x3d73dca8be2c1f1aU,
  0x3e592b00be4c7f5cU, 0x3e05b19cbde32c90U, 0xbe4975943dbff030U, 0xbd9878fe3e08de24U,
  0x3e6b890c3e40468aU, 0x3e4a2baa3be8e1c0U, 0xbe3be6513e4a7adaU, 0xbe919905bdb1953eU,
  0xbe103cacbd1d6e98U, 0x3dd9c84cbc80ed40U, 0x3da9b4903d812ae0U, 0xbe6e4ce2bd86f876U,
  0xbdeeea5c3d267520U, 0x3e934004be475028U, 0x3e6dccc83e1cd15eU, 0x3e4ca3c63d9e74ecU,
  0xbe284b8ebde28356U, 0x3e346f41be86375fU, 0x3e0cc728be1f6427U, 0xbe64fe373e53c342U,
  0xbe73afac3da506bcU, 0xbda003cabd389930U, 0xbd15d1ed3d94ae06U, 0xbe454573bda52b37U,
  0x3d523b4cbe6d6becU, 0x3d940f1bbdfa5141U, 0xbe447ae23d161354U, 0x3e281303bd0e6598U,
  0xbde5c5b9bc1ae5a0U, 0x3e7a35e53e2d31a4U, 0x3dffacb13e3815d0U, 0x3d73efcd3df86b03U,
  0x3e913a123e2098d2U, 0x3e78ddf2be421347U, 0xbe4bbd813e627f0eU, 0x3e59f0483da5e250U,
  0xbe47f097bd7279d0U, 0x3e1313dcbda7538bU, 0x3d8eab6b3e80f78eU, 0xbdfa316c3e19c8ddU,
  0x3d378878be832d23U, 0xbe7131d8be0e1917U, 0xbc999b103d17d0b0U, 0xbdd05000be92ab20U,
  0xbde76d203e88ec48U, 0x3dfc4714be61ef21U, 0x3cda0980bde82374U, 0xbe93560a3e90498cU,
  0xbe7dfa7d3c8ae900U, 0xbc2c72c0bcfde6e0U, 0xbe1c84b4bd8a6843U, 0x3e6506e1bde668c6U,
  0xbe181a4d3cfeb430U, 0xbdafd80e3db2c1a1U, 0x3e8cd5a63e322dd8U, 0xbdac20393d92ce45U,
  0x3e1fcd823e717fd0U, 0xbd65310bbc9eeaceU, 0xbdd504a43dbe1220U, 0xbbc5a5f6bca4e870U,
  0x3e714300be122222U, 0xbca85d28be128fb1U, 0xbd3456793e22a800U, 0xbe127cc9bc5d2032U,
  0xbe61c718bc864a70U, 0xbe513310be062b45U, 0xbe0a969bbe027c2bU, 0x3e39de8ebc806e10U,
  0xbe00a4393daed280U, 0xbdc42688be50bd8eU, 0x3e7d2d903e835b46U, 0xbe09c27cbc558fe0U,
  0xbcaec4b8be392241U, 0xbda99e70bdc6b248U, 0x3c858b10bdd531d0U, 0xbe01ff4ebd8cdf88U,
  0x3e07f8603e8b223eU, 0x3e9026503d5fa47dU, 0xbc06c323be550db4U, 0xbe2f421ebdfe47b4U,
  0x39c8b4003e61f9adU, 0xbe913888be37982bU, 0xbe83d70cbdfa2722U, 0xbd6a23cb3e105e5aU,
  0x3e83e08bbd6be4d0U, 0xbe1a889f3e8bf5c2U, 0x3e8d838abd856b60U, 0xbe1e538dbdcf52a0U,
  0x3e1d1cd63d905043U, 0x3d85b92dbdb9d6cbU, 0xbe7a667bbe2c5526U, 0x3e34c759bcdec7f0U,
  0xbcaadbba3dcfa24cU, 0x3e279d523e6c2846U, 0xbe297b4c3e3bd50cU, 0x3e69179bbe5eccc1U,
  0x3bd9e3bf3e79d2f6U, 0xbe7f966d3e73b309U, 0xbe37591f3e9214d8U, 0xbe07c09f3e548a84U,
  0xbe7952ad3e33c0f2U, 0x3c9602e9bcb903f4U, 0xbea20f5dbdbf5d64U, 0xb86e96493e24cbe2U,
  0x3e4209cdbe1cbaffU, 0xbe30f09e3e53dc60U, 0xbc8cc8763e5810d4U, 0xbd6fda10be56b284U,
  0xbe75ca3ebce0fa50U, 0xbe601b00be779f1cU, 0xbcc4a6343e48cd9bU, 0x3e7bb5643df074c0U,
  0xbe3a61d0be25591fU, 0xbe3621943e8dafc4U, 0xbe1f9ce6bc2a9ba0U, 0xbe90eb1cbdddbd14U,
  0x3e63948cbe6e5574U, 0xbe686222bd78f24cU, 0xbe8c95993e20d04eU, 0xbe3ec3eebe3c0fb0U,
  0xbe5f7cdabe44cdb2U, 0xbe2ea2c2be2eb4e4U, 0xbdd865ce3e069d42U, 0xbd850a00be1d57ccU,
  0x3e67d4f83dc6da34U, 0xbdd0d0f8bd815962U, 0x3d64c8483d702658U, 0xbd6c2c683d103618U,
  0x3e5deb38bdbdeb06U, 0xbe03a2673e4cc010U, 0xbe1c5d23be54f3a2U, 0x3e8c79d4bd17bae8U,
  0xbe6d1e92be560f00U, 0xbd9cac983dac7cdcU, 0xbe806acdbe5729e7U, 0xbcb06880be1faeedU,
  0x3cd473403e90c69eU, 0xbe6288533e47060dU, 0xbe83984c3e8ce8daU, 0xbd9741593e61ea04U,
  0xbb33c5f63e0fb036U, 0xbe6bd2193e5a406bU, 0xbe5b46a7bce6933aU, 0x3e7ec3fdba3dda18U,
  0x3e833d443dbaeb9fU, 0x3d255d0a3e320e62U, 0xbe11aef33d4c08c7U, 0xbd3bf348be12d468U,
  0x3d8bcc62bcef7d60U, 0xbd1a71cb3cbaf560U, 0x3d86ceb43e364884U, 0xbd1e77413e722049U,
  0xbdc33bec3d1f7380U, 0xbe122fb33e51552bU, 0x3d67e8ab3e643abbU, 0xbe4108723ddb1500U,
  0x3e4a59bf3d7466b8U, 0x3e58ee223e066b3dU, 0xbe8454563e9aea80U, 0xbdb5a4c33e489fd4U,
  0x0U, 0xbc989ec33c4acc06U, 0x3b0be25abbc39a1dU, 0x3cb8f76e00000000U,
  0xbc0b0390bde6e0b0U, 0xbe050d493e08e2d7U, 0xbe0b86bfbe5060ccU, 0x3dff88233d94f61eU,
  0x3d9f445a3e2db4e9U, 0xbc946a483db7c280U, 0x3d1ad3e0be311024U, 0x3d3c2f51be3021edU,
  0x3da1f9763c73e310U, 0x3d7460dcbd28ae24U, 0x3dec122c3d21b518U, 0xbd8ebaa93cccefd8U,
  0x3de3beeebe02fe6aU, 0xbc7e9c703ddfe12aU, 0xbcc212d1bd8842d2U, 0xbd92dccebdce6360U,
  0xbe20c1903e1bac11U, 0xbe292befbd92deaaU, 0x3d85eb87be31a43eU, 0x3e3e92d43db4e9f2U,
  0xbde50ebbbc3f3ec0U, 0xbe107a5c3c912410U, 0x3e27e5473cefa8d8U, 0x3d8dcd9e3dbaa47eU,
  0xbe063338be287a6aU, 0xbbdefca03e0c6a6dU, 0x3c575c66be21483bU, 0x3d90c4ac3befa8c0U,
  0x3e26e15d3e0b39a7U, 0x3db8c2463e181ad9U, 0x3e27d4d5bcb31d60U, 0x3db465aa3d92b91eU,
  0x3e33b3653e1cd75dU, 0xbdd2b988ba18e4e7U, 0xbe0884acbc229140U, 0x3df42aa03de25bbaU,
  0x3e092b9dbda5d268U, 0x3de7475abd3db963U, 0x3db7e9e93e1cc127U, 0xbd0c6eda3c776350U,
  0xbd455410bdac160dU, 0xbddd4c73bdf180e8U, 0xbd20935dbe32ef58U, 0x3e36867cbe3720eeU,
  0xbe328908be39fe1aU, 0x3cf33b70be18d027U, 0x3e1c34d93e01e3fbU, 0x3d15c50bbd35b744U,
  0x3dfc985e3df275daU, 0x3de58a863d4c878bU, 0x3e1ce3a43e04f831U, 0x3e30a4d1be09984eU,
  0x3dee5662bd9432f5U, 0x3e1a024bbdf592cdU, 0xbca7534e3e1692d7U, 0xbe08382d3d20bd74U,
  0xbe3b6cf6bcc98c20U, 0x3a6941003d2c957fU, 0xbca7bff0be32231aU, 0x3e3d5625be0c3c2fU,
  0xbe095c643dcc827eU, 0xbd7501383d94bdc6U, 0x3d7dba383dea6dcaU, 0xbd9d0de43e2b4ffbU,
  0x3db707463d8b037eU, 0x3e16216d3be87e00U, 0x3e3b3328bdd07a6eU, 0xbda680af3d89427aU,
  0xbe26b429bcd211a0U, 0x3e201a6bbda3f026U, 0xbe0956223d57b288U, 0xbcd66c313d491ca8U,
  0xbdaf4996bde376b5U, 0x3d83410c3d679830U, 0x3e3cb069be18fc07U, 0x3e1b48a23b8d4ee0U,
  0x3e380af53deb8642U, 0x3d2600d83e21ce7dU, 0xbdfbc2d7bdf3b140U, 0x3dfd588fbdca4d7fU,
  0x3e1b871bbe27bde7U, 0x3dc1ac703de7670fU, 0x3d179f3fbe598a1aU, 0x3dbbcbd6be066c81U,
  0xbe2f61473e2992dfU, 0xbd742b24bcc5fe66U, 0xbc47c50fbd40cfe8U, 0x3e3ab82fbda45d1eU,
  0x3dd298c6bd38fd48U, 0x3d374d54bd1542fbU, 0xbe1e03683dc90572U, 0xbd1eb98dbc5ec720U,
  0x3e3250a9be13b22cU, 0x3d96142abe00f44bU, 0x3dfd75aa3e3971c3U, 0x3e3f77983e1aa813U,
  0xbd9d50623c0ae310U, 0xbe3cab38bc851485U, 0xbdc36076bd021458U, 0x3df51471bd14848cU,
  0xbdef9415bdf63a35U, 0xbba836403da24857U, 0xbdefb5173d9212feU, 0x3d9419e3bd980052U,
  0xbc1062503db8172eU, 0xbd5b8e70bd8d56bcU, 0xbd8e6cf83bba2620U, 0x3e28b9d5bb800700U,
  0x3dd495e63cf20010U, 0xbe0cc1283cdf9c46U, 0x3c523d8fbe07141cU, 0xbc38da44bc4d90f0U,
  0xbe361843bdea3805U, 0x3af57c803b6f1cc4U, 0x3decae2bbe36088cU, 0xbd8413053e17f6dfU,
  0x3d0a51683dcb403aU, 0x3d8fd40a3dde810fU, 0x3d9f0f5abdd31141U, 0x3e18deeb3dddfe0eU,
  0x3a0107003e13daddU, 0xbdb9d715bd33f0feU, 0x3c2b8765be1babbbU, 0x3e2c3cda3e2b1d1dU,
  0xbe2efaaebe2ade80U, 0x3d6b85283d8310d3U, 0x3e33d5983b3f7980U, 0xbda0c725bde8027fU,
  0xbdfaebd33d8ca696U, 0xbd60633cbe3385ddU, 0xbdc1fb2dbe116985U, 0x3e41a9853e3b3269U,
  0x3e1ccfcdbdb76d14U, 0xbe122c563dcb6f2bU, 0xbd1991623d5765b8U, 0xbc847cf3bde7d01dU,
  0xbbe94d00be3779feU, 0xbd543968be1cb9c9U, 0x3b01cb043e228bddU, 0x3e0edd60be185a4fU,
  0x3e20d2053c4de520U, 0xbd3b1b48bdf5ada2U, 0x3df06c4cbe264945U, 0x3e461e0ebdbeb863U,
  0x3df205d23cd130c0U, 0x3dc35ddebc9a7510U, 0x3db87c8f3a7bac00U, 0x3d62236c3d60e9e0U,
  0x3db7066a3e0cf439U, 0x3d6867a8be094440U, 0x3bca01d03c162a90U, 0xbe1539af3cf06ca0U,
  0xbd1b03ac3e10499fU, 0x3d84f7c4be08c4c5U, 0xbb60f65fbdc26466U, 0x3da529e83cca3b30U,
  0x3de0db6e3dd1a972U, 0x3c3c13b0bd9504a3U, 0x3cdfd34abd8c18caU, 0x3e14cee6be091661U,
  0x3e1312d53cd565a0U, 0xbe09d30e3ddf3269U, 0x3d986f07bd0af7cfU, 0x3de83f2ebdbb47bcU,
  0xbd5725c03c06c670U, 0x3dd3900a3d8675daU, 0xbe237a2c3d317c80U, 0x3e120dc7be067ea8U,
  0xbddc93423b553740U, 0x3d77976c3da5c542U, 0xbe1a2dc8bce6e8a0U, 0x3dcc21593d8c86eeU,
  0x3cab6b30be08b69fU, 0xbe38e686bcd07c15U, 0xbe185fe13d45a400U, 0xbe37d347be0b759bU,
  0xbd8cf2c13dd43d3aU, 0xbb0917c03dcfab80U, 0x3e2b3092bdfdae8cU, 0xbd44e69cbc728a00U,
  0x3e271f853bf66fa0U, 0x3da381fa3e27adc5U, 0xbd297e323a88f780U, 0xbd6f37f83dacbbfaU,
  0xbe1a3365bd704fecU, 0xbd706124be0133c1U, 0xbe40dfbb3d32dfe0U, 0xbd7288343e3956e7U,
  0x3e0851a1be064e01U, 0xbcc531383d79d738U, 0xbda51e5cbe135b3fU, 0x3e134bfdbde05ed8U,
  0x3e15b8c93e083da9U, 0x385f1000be193654U, 0x3da260673d7424c4U, 0xbe37b08a3e2747fdU,
  0xbd98e60ebe2320d8U, 0xbe36ddcd3e3342a7U, 0x3ca0151ebe28207cU, 0x3e1d09cd3d9f27aaU,
  0xbc7d5bf03c9df978U, 0xbe3a6ea0be33bc65U, 0xbe01ab3dbda388feU, 0x3dd2b0d83c8e4e20U,
  0xbe3d0db9bcb5ffd0U, 0x3daf1eba3e03c6a5U, 0xbda6af323e0f5c05U, 0x3e2c4211bdd3e5aeU,
  0x3d0f6cc8bd7f9b34U, 0xbe0a359b3da122deU, 0xbc2e3d4b3e1eb471U, 0x3e4ba581be3bd283U,
  0x3cb84a203c52bf30U, 0x3e32a4fb3dc74332U, 0x3e1de5163d637384U, 0xbd62a3fb3c3d9590U,
  0xbd4535b03d490654U, 0x3d251d9c3d50ee74U, 0x3bd048e0bddcf78aU, 0x3c3ed3303d88870aU,
  0x3d49c254bbaa3e80U, 0x3dd31e763d74c09dU, 0xbda3a4f7bdc907fbU, 0x3dbaeaf7bdf79edbU,
  0x3db493b2be375a4eU, 0xbda694233c539030U, 0xbe0597c8bc9c75e8U, 0x3db64423bca94350U,
  0x3e070cabbdd9a832U, 0xbd9c0bed3d7d33a0U, 0x3d20eb943e366c0bU, 0xbd9b1047bd94c1d2U,
  0x3db6d6ce3dc85db2U, 0xbe04825fbceb4d70U, 0x3df7cd8f3d94930eU, 0x3bb25fd4bd88bfb4U,
  0xbdb6be463e0ed6adU, 0x3e12185fbd826cc8U, 0xbd0eaf253e243877U, 0x3e2cc022bbef0520U,
  0x3daccc3ebd979bc9U, 0xbded21723e0e995cU, 0xbde467173e20de1fU, 0x3e0cc55ebe045407U,
  0xbd2460acbda02a52U, 0xbda4787dbe09fec3U, 0x3e13ece93e1474c5U, 0xbd39361ebe332975U,
  0xbe1fbe053e2d62cdU, 0xbe219f323e1a8c54U, 0x3dad7abd3cdee170U, 0x3e256a9ebca95fd8U,
  0xbdd482d4be09e662U, 0xbe3a509fbdc25fb9U, 0xbcd9ab7fbdfdcb12U, 0x3e16f8ce3dc476d6U,
  0xbce98888bd8fccffU, 0xbe0427703e0a24eaU, 0xbd2b842dbdf2301fU, 0x3d7266a03da0c0deU,
  0xbe307c2abe2bba73U, 0xbda56e733d5381b5U, 0xbdffdb903dd006aaU, 0xbdcf02553c539e10U,
  0xbdce887d3df7f7a6U, 0xbd7b7ae63d9c551cU, 0xbe11c6a5bd099838U, 0xbddeb0bf3e2534bdU,
  0x3e02887b3e00efb3U, 0x3e018f853e2ec899U, 0xbc9138fe3d64583cU, 0x3d48ef71be20856eU,
  0x3c05b8203e331eb9U, 0xbd88037d3d95cbabU, 0xbe0e8549bd740f58U, 0xbde29267be249dc1U,
  0x3c4c0fa0be0c802dU, 0x3ddda5a63e0ff0c2U, 0x3dc1b48c3dd95e2eU, 0x3dfd453d3dfbc92aU,
  0x3cb40108bd9fc380U, 0xbe2fd3e13cae4426U, 0x3d5751e93de8ca3aU, 0x3e2c88ddbce07c88U,
  0xbe099988bb1acdc0U, 0xbdf982d0bdef55d2U, 0x3d9b61913e1c16afU, 0xbe1343d5be32f163U,
  0xbdd516d7bde2597dU, 0xbe19e210bdd58951U, 0x3e3847673e3c02a9U, 0x3c39d75cbe2733b9U,
  0xbceff8c83da9478eU, 0x3e2ca2f13c458889U, 0xbe0261a33a25f100U, 0xbe3e3d883d99081eU,
  0x3e1a1f8fbdc3a2b0U, 0xbd230bc83dc2135aU, 0xbe0e5aea3c739850U, 0x3d35f507be338cc5U,
  0x3e3c2c9b3dae2342U, 0x3e107beb3d10f109U, 0xbd4d890ebce1ac10U, 0x3d7a88f3be238668U,
  0x3e327c5f3e073f71U, 0xbd77cf00bd5127d6U, 0x3d045addbd1b9e88U, 0xbdda3faf3df00012U,
  0xbb9144203e2efd85U, 0xbe02a1e3bdd9e259U, 0xbd0f65273e12a43dU, 0xbcf2b0fdbdab69e7U,
  0xbdd68dbfbe3115ecU, 0x3e2ef9b93db590b4U, 0xbc96fe543c43e760U, 0x3d26b1c5be19d486U,
  0x3d3f2a48be395017U, 0xbdbdc8793e27f681U, 0xbe03c9523d487804U, 0x3dc089b03dcfc836U,
  0x3ddb72b6bd5f0aa8U, 0xbe2283dfbe3c038eU, 0x3df9b3e43d18a3cdU, 0x3cd2c11dbdb6c68fU,
  0x3c935b683d2102a4U, 0xbc41d6f0be0e8759U, 0xbc850d0dbd4c00ecU, 0x3dfaf180bd75365aU,
  0xbe2befa03dccd316U, 0xbc9976a8bdf35987U, 0xbda9cfd7bdfbbdfdU, 0xbc83a69f3ca80e98U,
  0xbde909b93d881576U, 0x3ccc5e583df3a3aaU, 0xbe2388873e031151U, 0x3ddfb803bdce8d6dU,
  0xbe206377bdadc1e7U, 0xbca22c58be2d5d81U, 0x3e11eeeb3de531aeU, 0x3e4a787e3e19b641U,
  0x3e1c9f953e21759fU, 0x3cdd9138bcf43a80U, 0x3e3811c2bd0f3174U, 0x3e01004dbc360cd0U,
  0x3d198c04bbe528c0U, 0xbcdf6d303df2ec4aU, 0x3e24ccaebe1093f7U, 0x3c71beddbe1bf0e7U,
  0xbc02fe303cfeae30U, 0xbe0ad2a13dd5c7e2U, 0x3e2295b53c2fa800U, 0x3dc028383d587138U,
  0xbdf5a4bebb97eae0U, 0xbc500f703e2bb403U, 0xbcabe077bd12a2d4U, 0x3d653a5ebdb31d22U,
  0x3d6e5860bd9152e1U, 0x3e3123c5be35e221U, 0xbddc60a4bdd2e7d4U, 0x3e3e55babcf82108U,
  0xbd5cfd383db15d62U, 0x3cce1cb83e369065U, 0xbd2e43ffbe04493aU, 0x3e219007bcaa9518U,
  0xbd8501873e2ba23fU, 0xbe3b4ee43cc1f068U, 0xbd0302cb3c20b420U, 0xbe444f4fbe135209U,
  0x3db231a63d87934eU, 0x3d8753663e170213U, 0xbe2688193d8c7c66U, 0xbc8db7663e2ed30fU,
  0xbda5f4d23d217e38U, 0xbdb93805be2ec76cU, 0x3e33a0f43dae040eU, 0xbe4b83b1bca4e248U,
  0x3dc6ee12bd55c3a8U, 0xbe089106bd94d694U, 0xbd70133ebd709b94U, 0x3dac60163d35a9e0U,
  0xbda35e403d965a66U, 0xbb24cc403da01899U, 0xbd7c4687be38ee24U, 0xbe45cbc03da8b9f6U,
  0xbdbee2763d3bc86cU, 0x3e369439bd6f613dU, 0xbc92a6f83e16263bU, 0xbcf051003d9dd54aU,
  0xbde619a0bdf235cdU, 0xbb283f803d7f11d4U, 0xbe0da0ae3a4bd400U, 0x3d9ea9bbbdcacb66U,
  0x3db831763e1ae44dU, 0x3e1efe553d5eb2f7U, 0xbda9a5823d788c4cU, 0xbd8caeeabe2ffa7bU,
  0xbd8470563d6b1ea0U, 0x3d7e03ccbc7912a0U, 0xbcc4b3963d11ac84U, 0xbe2861ad3d5f84a4U,
  0x3da638d63d2f9284U, 0x3e01f322be1c2224U, 0xbddb07a13d83f086U, 0x3d8429e13d745720U,
  0xbbe76e00bd5100a4U, 0x3d96bb5abb021f2fU, 0xbcbbfe58baa55a80U, 0xbdde4e143e30251fU,
  0xbdfbad47bbf65260U, 0x3d4d180cbe202f7dU, 0x3e2254a6bd8668b2U, 0x3e3547d3be145cc8U,
  0x3cd12620bd320bd4U, 0x3e0ae4433d0d5bb7U, 0x3c7bc19f3e077a37U, 0x3d1713483dc70e42U,
  0x3bd9b1603d78c030U, 0x3daac7d63df15b4dU, 0xbd55176b3dcb9e9aU, 0xbba7835e3dc1577aU,
  0x3dda751e3d0081a4U, 0x3d956042bcd21a38U, 0x3d1eede43d73ac6cU, 0x3e182cc3be192135U,
  0xbdcc2510bdbaf40cU, 0xbe13892fbe2be2c6U, 0xbe21088dbd1cf574U, 0x3cee2b3fbe318b2eU,
  0xbd91f625bcffb298U, 0x3e298ecb3e14fc74U, 0x3e529d2a3d8346e2U, 0x3ab93ae63e0e7fabU,
  0x3e117f1d3e279295U, 0xbe32be53bd6e8011U, 0x3d23ea02bd353c4cU, 0x3d3625643c305c10U,
  0x3e210ef53dbfac56U, 0xbe25d8a73dcc0962U, 0xbde664743e29da93U, 0x3e0cd2a5bd9c4fa5U,
  0x3cc8b610be0bfb37U, 0x3d12d5c83e05f816U, 0x3dc8553ebd55e710U, 0xbc67f4d8be33a61dU,
  0xbe2efe8bbcb84830U, 0x3d732d643db2afeeU, 0x3d30d86e3e35a389U, 0x3e2e39913db3aad2U,
  0xbdce36003d8bc1a6U, 0xbd88ca583c8478baU, 0xbd6018fe3d970a3aU, 0xbd968d7a3dfb9672U,
  0x3d46be083d5a67e4U, 0xbe2887dcbcdd0f3dU, 0x3e1fa26ebe13cc79U, 0xbd87c79b3ca305a8U,
  0x3ce724883e31dd2bU, 0x3dd6972a3dda0b11U, 0x3e476f023e3cdba7U, 0xbe047db6bada1600U,
  0xbccd8620bdc2f654U, 0xbe3530b43da81312U, 0xbdacafa73e13db6dU, 0x3e0ab2303bf8f920U,
  0xb9e1fe00bde4d018U, 0xbe131c4cbe066843U, 0xbdefa9f43cf057e0U, 0xbd34d4adbd71de90U,
  0x3dc74eeabe02f936U, 0x3d6df868bd9921d4U, 0x3e3e09ef3dd9d4daU, 0x3e42dcb9bd8f8afdU,
  0xbdd22285be2dbe44U, 0xbe1a03e2bcc6067dU, 0xbd83a2d33e16ccb1U, 0xbd9271e13dcfa2e2U,
  0xbd1a6484bd8d279bU, 0x3e1e01a7be1b6c5eU, 0xbdd38f253cd2ade8U, 0x3e0be085be28cabcU,
  0xbda8863e3e095f91U, 0xbd2b4bed3e4b4ff8U, 0xbe15c2dfbe01d4f4U, 0x3d06e9e2bd8e722dU,
  0xbdba31b2bc7e8c90U, 0xbd861e8a3d66a66fU, 0xbb56957bbd305110U, 0xbcaba9c5bdc1fa0cU,
  0x3d88cf423c8202a0U, 0x3e13f5e13d674a9eU, 0xbd144ff7be3c67a1U, 0x3e1550d2bd2750f0U,
  0x3e0f47073d93dcdeU, 0xbda708bdbdbe7df5U, 0x3e461b863e23d33bU, 0xbd5b9e803d3018a8U,
  0xbdf9ac2cbcc78ad8U, 0x3bf37a403e03580cU, 0x3df6185fbe004bebU, 0xbc9f3cf1be225f03U,
  0x3de096a2bdcb7d9eU, 0x3d8172a03d4a9309U, 0xbd2ca5d33d57f7d0U, 0x3e013b683dc96856U,
  0xbe1de36fbdd1b5faU, 0xbdf526b4bbb43086U, 0xbdd25aa6bddf32f2U, 0x3dbd02563d7b0168U,
  0xbcdab1883dfc80aaU, 0x3dcc1a1ebe0889c8U, 0xbc11a72bbc06e4e0U, 0x3cde9f32be2eca3cU,
  0xbc4135f03d3997ecU, 0xbe122fa3bc9072a2U, 0x3dcb34213e2835c9U, 0xbca6534f3e2f2063U,
  0xbdbc2ccdbddc64c1U, 0xbb839be03e2274fdU, 0xbd0e33cd3c6edd70U, 0xbda024acbd683638U,
  0x3d1eaa10be2b87a6U, 0x3e3ce671bd59d40dU, 0xbdd735f5bcaf39b8U, 0xbd2455d03deb3e36U,
  0x3e2acce73e33d08bU, 0xbe0c4336bb61711aU, 0x3dfa6f9cbc9927b8U, 0x3a62f3b7be338764U,
  0xbd9e223fbda3ee79U, 0x3d86bf1a3e03f28cU, 0x3cd5e33cbe23b9c0U, 0xbd09e67dbde4f2f2U,
  0x3dbbac523d071c30U, 0xbd1151203db40d35U, 0x3d25ffaebd8aa484U, 0x3e3095583d42904cU,
  0x3dfe6cae3daf1872U, 0x3e140cdbbe18a9aaU, 0x3e336aec3d18e51cU, 0x3e2c2e3e3c5a9f40U,
  0x3d72dda4be38d219U, 0xbe2f41cf3e147090U, 0x3cb9abf0bcd377d0U, 0x3d504a9dbe102cd2U,
  0xbbc64e00bcb12840U, 0x3e30c20b3d50c836U, 0x3bf694dabd02619cU, 0x3cf0a30dbe135cfaU,
  0x3dcae93ebe2cc338U, 0x3cf73628be1d8f2bU, 0x3d3c2cacbc93a168U, 0x3e2e87e9bc92ef08U,
  0x3cd442d8bda762cbU, 0x3d8c241e3e03cb6fU, 0x3e1a7f9abe366871U, 0x3de560f0bb74e240U,
  0xbdad3b30bd3bd0d4U, 0x3da8dcc63d1cb7bcU, 0x3d601bca3db3e442U, 0xbb966233bd93c093U,
  0x3e370ac5bd1dd20cU, 0x3dea92cd3dc7a62fU, 0x3da817213e08b102U, 0x3bc2ba3cbd16c2a0U,
  0xbe39e7c8bc96f3c0U, 0xbcb59ca83d83a004U, 0x3d37014abdbeee2fU, 0xbe0f3136bdb687f2U,
  0x3de8b93e3d81413cU, 0x3d5217c43e1064d5U, 0xbe47834b3c04a970U, 0x3df9bf4fbd85e408U,
  0x3db720c23e12c5efU, 0x3dd45baa3e16e058U, 0xbc8fbd693e27621fU, 0x3dea4d593d6a13c8U,
  0xbe2e37d4be2aa3a5U, 0x3dde350abdb5950fU, 0xbd5012c53db986beU, 0xbc573352be0bea1cU,
  0xbdbe9a0f3cb3c9a0U, 0xbd6198c4be2d6d85U, 0xbda2c3a13de96c92U, 0x3e1a6384bc886140U,
  0xbdf0ae82bd4cd9e8U, 0xbe0caa54bda57a39U, 0xbe314127bd208b48U, 0xbe40c5cbbdb92830U,
  0xbe116b9cbe2bbfb6U, 0x3d893faabe3a5895U, 0xbdfaf2753dbfe1f2U, 0x3e218ddf3df7ba92U,
  0x3e2e79453d018d3cU, 0xbcbb92103e257d21U, 0xbdf07495be29d34bU, 0x3c9690063dec35daU,
  0xbe3599943d65f39cU, 0xbd55a320bd9879ebU, 0x3db6bfd4bd819b26U, 0x3dbc366bbd7256ccU,
  0x3e08237bbe2295caU, 0xbd5863d4be15c8d3U, 0x3dffdcac3e0d1a83U, 0xbe27999dbd7a87a2U,
  0x3c003840bdbac422U, 0xbc31fc90bc882375U, 0x3d5e8dc23d041238U, 0x3da97b7a3cd83380U,
  0xbdfdef373e1b57a9U, 0x3d2391f8be2f5afeU, 0x3dd4aede3debe19aU, 0x3ca30726bdc4f9e8U,
  0x3b31f4c03cc33be8U, 0xbd9504d2bcc129caU, 0xbd658d0b3d0ece8cU, 0xbe126c473d2fbb54U,
  0xbdb8c2c63d97417aU, 0x3e2d68f93d5024a2U, 0x3d00ab6dbdfff878U, 0x3e208e25bce59528U,
  0xbe02b3f33b884cc0U, 0x3e33bccfbcd61ddaU, 0x3e0ee28dbdf0411cU, 0xbd865ad43e1f5b75U,
  0x3e279a233cb83370U, 0x3dcfbf8a3db3034eU, 0xbd9f6c073db91212U, 0x3deb4790bcb4dc78U,
  0x3e1d86bfbe3c0da8U, 0xbc96bff03e2f623fU, 0x3dd33869bdc2fe51U, 0x3db67ad2bdf11628U,
  0x3d0594c03e31b4cbU, 0x3d0218803e07ccf6U, 0xbdc816183e256be1U, 0xbdbf72573e0ff175U,
  0xbdb0b2c3bd25c46cU, 0x3e047805be12cc94U, 0x3c95fa033e0e5ba9U, 0xbe56ffff3d22531cU,
  0xbe3acbeabdeaeeedU, 0x3d4da870be21745fU, 0x3d5c0b8f3d1287a4U, 0x3e1e9b46bd818abdU,
  0x3e3949af3e2c8dafU, 0xbd85df59bcd5739dU, 0xbe036d21be3cdfd7U, 0x3e0454463dbee30aU,
  0x3bc9b1603d922e6aU, 0x3d5f4db8bc92210aU, 0xbe38045e3e3541f1U, 0xbe3115dabde8637aU,
  0x3df6b89ebdd64cd9U, 0xbe121571bdccd4d0U, 0xbd0ac060bbd03460U, 0xbe1a409e3d84c510U,
  0xbe3a82e13d9e7e7eU, 0xbdb82310bc331ea8U, 0x3d0db729bd29d82cU, 0x3e12589e3de98c72U,
  0xbda118dfbe0ee8baU, 0x3d1850d83e1d90f8U, 0x3cc7b01c3dbfb6beU, 0x3a4137cebe06d3f5U,
  0x3db1fad2bd459064U, 0x3d19d7a0be249ea6U, 0xbc1df7e33e1b78d7U, 0x39ec1690bd8ecc83U,
  0xbdd49c61be1268a4U, 0x3e252f2b3de689e2U, 0xbd5e3739bdcec2b2U, 0xbd9b4e013c04f350U,
  0x3e308d39bd4900e0U, 0x3dad508a3c1a42d9U, 0x3ddbd95e3d7c8eccU, 0x3dc174c23e11cc47U,
  0x3e1677f53dd0548eU, 0xbd901a97bd37d4eaU, 0xbe1813ac3df3d442U, 0x3da62647bd2dc558U,
  0xbe02234c3e182889U, 0xbdc42298bcea2190U, 0x3e149939bd2a9694U, 0xbe13b88cbe13e0ecU,
  0xbe01e0cb3cec7960U, 0xbdfe6c8abe2db427U, 0x3d770974bdf8d431U, 0x3e2ba1a6bcaadcd8U,
  0x3e09adab3e1e8aa9U, 0xbe3c5a47bd5690f7U, 0x3d6aa44b3ce55a30U, 0xbc46a861bdcf773fU,
  0xbc73cf20bd33dc30U, 0xbb6b1cc0be2e163cU, 0xbc13e0b93e12e6d7U, 0x3dec47a6bc91a458U,
  0x3c227790be1abcccU, 0xbdd580e43e26c1e1U, 0xbd8d53e2bd8e6dfaU, 0x3b2b55593db88c4aU,
  0xba90af80bcdffdb0U, 0x3d5558043e17928fU, 0x3e34282dbcbbcbf0U, 0x3c2f74c83d84bfa4U,
  0xbd9741ba3e328623U, 0x3de9f65abd884c37U, 0x3da62a3fbe1fa53cU, 0x3e326a543d158548U,
  0xbde35082bc5f5c50U, 0x3dccc9bebd1f6433U, 0x3e1478713dbfb3baU, 0x3daa6d90bdb2d47bU,
  0xbbf962c0bdb689adU, 0xbe3b2844be0f9a5aU, 0x3c1783d63b0aaa40U, 0x3e0ae167bd8ffc2bU,
  0xbe248416be00f546U, 0x3cb861803d31e548U, 0xbe1ad423be03f3e7U, 0x3d8eb56ebdf822b0U,
  0xbc5519503e2ae37fU, 0x3db9c989be3602cfU, 0xbe2bd0973e017c97U, 0x3dd55f53be272a6fU,
  0xbdf0f966be256ee0U, 0xbe00fb123d27144bU, 0x3da2f535bc668410U, 0x3cd8782bbdf04cacU,
  0xbe1676d6be2a10bcU, 0x3e3bad4dbd463896U, 0x3c3844c83d76d6fcU, 0x3d761b87be101cb6U,
  0xbd92360d3d65b430U, 0xbca61f08bd5db21bU, 0xbdb23dfbb909c800U, 0xbccb5ca33dbb86e2U,
  0xbc45db60bce0c738U, 0xbd7a5ac4bcbdfbe5U, 0x3c8bbbe8bd6aea90U, 0x3e1136aa3d62a824U,
  0xbccf03c8bd91bdb1U, 0xbce82a58be379c56U, 0xbdc3fd5d3d9eb00aU, 0x3e0f0d8d3dcc474eU,
  0x3dc85c9ebd948f8eU, 0xbd474d38be299dcbU, 0xbb3740533e26fd73U, 0xbbd01833be3cf298U,
  0x3caca950bbce7f80U, 0x3e08c6fd3e23d984U, 0x3d1e31e63cbd3c60U, 0xbe44750abd83e2edU,
  0xbdcc17fa3d80ba38U, 0x3c8b68403dbfe90cU, 0x3ce3fd7fbe14fdaeU, 0xbe276c14bd7f35c0U,
  0x3e164dd3bdd3e54aU, 0x3dadd216be014685U, 0x3c8d8bdbbe035c24U, 0xbe42e3e13da30ac6U,
  0x3d9cd9323de4394aU, 0x3d4744983e1c8715U, 0x3e00143cbd56bb64U, 0xbdaefe6ebe201061U,
  0xbe082effbc40ac60U, 0xbc56a610be2d3a74U, 0xbd76ed603e37264bU, 0x3cf60b823cb4ac48U,
  0x3dd61f0e3e249ea1U, 0xbd71e2d83daf17b4U, 0xbe1b99d03d166ce8U, 0x3e0da6713d12bc5cU,
  0xbd62cf103e3c57c9U, 0x3ddcd982be0d3d1bU, 0x3d1107c0be38aee7U, 0x3de84b523d81f714U,
  0xbe26906f3d70f6b4U, 0xbe0f0710bcb25fc0U, 0x3df476993d6d6c8cU, 0x3d38b360bbd272e0U,
  0x3dcd39febcefe520U, 0x3dab08a6bd701488U, 0xbe17e1c4bc7202d0U, 0x3b89035f3d755ee0U,
  0x3df912823d1ab498U, 0x3da7714abdd92fcfU, 0xbc9531ba3db9c51aU, 0xbd85f340bd8abc90U,
  0xbe04dcacbe18ba64U, 0x3e2c638d3dfad316U, 0x3d9f510cbc55f8e0U, 0xbe24dab63e012f05U,
  0x3d86e0763e1eec69U, 0x3c623c103c974600U, 0xbe47f461bd28dbecU, 0xbc98de62bd4443acU,
  0xbe0a402dbd990f5eU, 0x3dec7142be2944d0U, 0x3e2f319e3e1efa07U, 0xbd46e4133e3577adU,
  0x3d02709c3b9715c0U, 0x3e0384273d0a8d2cU, 0x3d3e87373dbf29c2U, 0xbcceef08bd98fd99U,
  0xbd74d9e43c8ac240U, 0xbe25a8e63e067445U, 0xbdc5c241be13caa0U, 0xbe3887743d010e34U,
  0x3c3c63d03e214d7fU, 0x3dc5be3ebdef298cU, 0xbe31325abe3b6f6fU, 0xbe36769ebcda9768U,
  0xbd01ca58bcbd2930U, 0x3e2a1f93be0e7087U, 0xbe2c810f3e123765U, 0x3e04eaf4bdd3407aU,
  0x3ddaf96abe296397U, 0x3d2c631c3d8af16cU, 0xbd76312fbcbb2fb8U, 0x3dd26eb53db87ea6U,
  0x3ded3d363e2da649U, 0x3e255c5b3d57662aU, 0x3d9d764f3ca9b3a8U, 0xbe052b3ebc86d650U,
  0xbd991bbdbe0f641fU, 0xbe02b677bdb022dbU, 0x3e3096033bbcd5c0U, 0x3e1dd4213c9b8ca0U,
  0xbd4707783e0cf50fU, 0xbe0869eebe195e00U, 0x3d47676a3d662cd8U, 0xbdd0b5633e01b2c5U,
  0xbe2e98de3dd7d07eU, 0x3e009cdbbd099ddbU, 0xbbb2c92bbd780584U, 0xbcf2156abd17a740U,
  0x3d6654c8be1a4014U, 0x3bce4aa03dbce506U, 0xbe1a1fd0bc977148U, 0xbe055d80bdf2b978U,
  0x3d8fa9fa3e07e589U, 0x3def1a02bde173cfU, 0x3c7c9b93be023677U, 0xbd45be363df6e4eeU,
  0xbcc6ef903d90e34eU, 0x3ddedfca3d457c88U, 0x3e2ec510bd34156cU, 0xbdedbafa3e04864fU,
  0x3d9288323e3a242bU, 0x3def138e3e1845dfU, 0xbd76acc6bcbf8e70U, 0xbdc31b1c3e23d71dU,
  0x3da4177ebdf3b7f2U, 0x3c8846c03d27877cU, 0x3cdf6e1e3d21f66cU, 0xbdfe19a2bcda8858U,
  0x3d98cee6be06cc6fU, 0x3d86ac2e3d8e5306U, 0x3e08e1ddbe3346e0U, 0x3d432af1bcc4ddd8U,
  0xbe3596563d873d32U, 0xbe0fcf803d9f6e5eU, 0xbe38768a3e1500f7U, 0x3de25b1f3db05d16U,
  0xbdca7a633db8afdaU, 0x3e3919bbbddf4a48U, 0xbd18d7fc3c025630U, 0x3ba94968be1dc698U,
  0xbd8f686abe05df06U, 0x3e0b5a67bd8a2e47U, 0x3da7d3013d7b7354U, 0x3deecf43bdba62b1U,
  0xbe105d53bd5d98c8U, 0x3de63eaa3dda52eeU, 0xbdd29be83d398710U, 0x3e2ece463bf3a3e0U,
  0x3e31b3f3bca8a1c0U, 0x3dc29f6abb4c78c0U, 0x3df4a13bbbf71d20U, 0x3e1cfbab3de54eceU,
  0xbcaed8b0bdf6b954U, 0x3dc25ceabce5f600U, 0x3df8f2eebe276820U, 0x3e2821ff3de4adb6U,
  0x3d9eaf72bbf9e000U, 0xbdbc9bbf3d8542fcU, 0x3e211d4dbe010aedU, 0xbe30cbe2be39e9f4U,
  0xbe230ad43e21e951U, 0xbdc01ac63d00d0e8U, 0xbd74fa94be0cb01aU, 0xbe1251a5bdd800afU,
  0x3dc2e1ca3dfc657aU, 0xbd0ad59cbe1133b0U, 0xbe338ce3bd9016e5U, 0x3d53472cbda362c0U,
  0xbd15f36c3e03212dU, 0xbe210f023e1c8c8dU, 0xbcbd0208bcf19b58U, 0xbde837ed3df86fb2U,
  0x3e20a539bd4a52a0U, 0xbe1ed757bd94c156U, 0x3dae2e263d9d4196U, 0x3d997b223df96d1aU,
  0xbc6b9060be34e5a0U, 0x3e0d93233d435240U, 0xbdfeb1b0bdc3f7f8U, 0xbd1d8a8cbc60bc10U,
  0xbd984f4c3e1c2d23U, 0xbd25df843e085c67U, 0x3e37ee953d0d0768U, 0xbcad2e58bd50c0e4U,
  0x3e1a5ab53e044e3dU, 0xbe1a2384bc448620U, 0xb91fa0003dbe7002U, 0x3d59cf40be27263cU,
  0x3dcbfcbebe021324U, 0x3d8b7086bda35f79U, 0x3e0e9b71bd92619bU, 0x3e0ddda53daae746U,
  0xbdd83461bd8ab63eU, 0xbdb004ac3bea8040U, 0xbe3ca7c53d5c204cU, 0x3d829d6a3e113d99U,
  0x3e3372cf3dc1f69aU, 0x3d4a6adcbe32a669U, 0x3d41740cbc916af0U, 0xbe3a580b3e0f8b31U,
  0xbd86ec05bd8e1f9fU, 0x3de85d923d23b34cU, 0x3dc6988e3e19f837U, 0xbe2727863dacb552U,
  0xbc2596503e000537U, 0xbbaddb20be1fe85fU, 0x3d620014bd59c5ecU, 0xbd32ad40be2f49c6U,
  0x3db7f1c2bc1dcaf0U, 0xbd43142cbd974144U, 0xbe326ea7bdb9b412U, 0xbca9ecb83e2c1bf5U,
  0x3de218f63df14f42U, 0xbcddf1c8bdab7080U, 0xbc908540be0ed7deU, 0x3de73ad6bd9c4750U,
  0xbd86bbd43db7d022U, 0x3e21d569be2b4e55U, 0x3cccc9a03e2a9dc5U, 0x3d9cb48e3d768e18U,
  0xbe1925cabde05769U, 0x3dc5a9263e131137U, 0x3d6116303ddb8a66U, 0xbd4ff4983da56002U,
  0xbe04c334bdbe7c55U, 0x3cc79150bdebd0a5U, 0xbd995f8c3e1eba49U, 0xbdc7b1e53d501ed4U,
  0xbd3ec444be29a7b5U, 0xbd617d88be0ee99aU, 0xbe01352f3dd1a24eU, 0xbe1dc97bbd6578e0U,
  0xbcd69250bddda433U, 0xbe2aee2cbe1a2e93U, 0x3e1762db3da15cfaU, 0xbd2ba9083da679b2U,
  0x3d047164be32f19bU, 0x3e19befdbc4b40a0U, 0x3d7cde2b3d98bba2U, 0xbdf7177fbdc8f203U,
  0x3db96f3a3dfbd846U, 0x3e20510f3d15deddU, 0x3dcc20e9bcb11368U, 0x3e22ddf9bd97ef44U,
  0x3e0a954bbe34631cU, 0xbe262d633e2dd058U, 0xbb4902b93dd42b02U, 0xbe170e693df54d8aU,
  0x3d82f894be2b7c34U, 0xbd86d6a0bde91f6cU, 0x3cf63bf9be0d3b86U, 0xbccf074c3e148f61U,
  0x3d357ac03d867d32U, 0xbe2a478c3dfc012dU, 0x3c2db8273e10e2bfU, 0xbdd9d9943de0094eU,
  0x3d9cdf3a3dc4af7aU, 0xbe22ce853d11d041U, 0x3d3faa98bd934e3dU, 0xbdc11ac8be2d868eU,
  0xbdc3ed073dc4146eU, 0x3e08eb1b3e1b22e5U, 0xbb0cfe653e1e5bb7U, 0x3e1569403e2b940bU,
  0x3d1fa00cbe130682U, 0xbdf05a6dbd708828U, 0xbddf7a7abd377d30U, 0xbdd115ce3d494994U,
  0xbe2e5169bd06fc28U, 0xbe1fc68fbe262bccU, 0xbda49c18bd882ea0U, 0xbd6711273e15d383U,
  0x3e37ffa53c258490U, 0xbd90f6cbbe3ad3b4U, 0x3db1b24fbd243b24U, 0x3cceb8493e2ee713U,
  0xbd233094bd74bc20U, 0xbd58e7283dc716c2U, 0xbdcfcaa53e2dad31U, 0xbe055026bda5024cU,
  0x3e0cd31dbe195448U, 0x3d9f7ea23cdfb460U, 0xbbd4c2debdcb3157U, 0x3db8a8a6bc8d1f08U,
  0xbe0f86503db4b4eeU, 0xbd638d90bda2597fU, 0x3dde9d813df28ba6U, 0x3da0c6e13d8b114aU,
  0x3cd063e03e3c30cbU, 0xbd0570843d66384cU, 0xbde2f8b43caf9548U, 0xbc997ebc3d4f0b88U,
  0x3da95aaa3d1b1920U, 0x3e341cb1bcd1a2c0U, 0xbbe785203e16d331U, 0x3daf42bfbc083550U,
  0xbd35a930bc72afb0U, 0x3e07505fbe22b8f4U, 0x3ddda30b3cae8b08U, 0x3d47678fbdcb076dU,
  0x3c9544883e07c3e1U, 0x3e0a9ec7bdf11d38U, 0x3cf19e30be1ab867U, 0xbd3d683abdb2dc71U,
  0x3d4a4ec0bc81fac8U, 0xbe11e1bebad37180U, 0xbc30c2f03da889baU, 0x3e2763d43d05e2dcU,
  0xbe21058bbc300050U, 0xbcbc8870bde78e4bU, 0xbe01d743bd711888U, 0xbe389414be108d8cU,
  0x3e329f473e29f6a1U, 0xbd5ffdfd3d9ca5e2U, 0x3d3fcc73bdd03edaU, 0xbd17ca8b3e350ad5U,
  0x3dbdadfa3d053730U, 0x3d196ca03e3d47a4U, 0x3d28c3de3d25a2e8U, 0xbdde8735bdd62285U,
  0x3e2809cdbe2885c8U, 0xbd1b4a9cbe2dde9bU, 0xbe45b7753d7a77e4U, 0xbdbffc73bca8a980U,
  0x3cc25828bd801c89U, 0x3ce3c7d83e046b4aU, 0x3e14a2163e11b30dU, 0xbcfb1444bd4ab9e0U,
  0x3d1211d83e35f70fU, 0x3e2feb773e1ecdc8U, 0xbbeb6ab23e16b871U, 0xbd781b793e16f2edU,
  0xbac171003e0ea243U, 0xbdad8055be2177c5U, 0x3dcd5c04be1143acU, 0xbd662c2dbd8c15caU,
  0xbd7adc343cb66c48U, 0xbe0d3b0d3d20b5afU, 0x3cda695abd65ce08U, 0xbc441685be1a0d80U,
  0x3e2e0bd9bdf03482U, 0x3c8cb688bdc7e5f5U, 0xbe44a05b3b41c040U, 0xbd9dbfd23d3f65b0U,
  0x3d544738bddf1b44U, 0x3d87c2463d910e8aU, 0x3db044cebe0741ceU, 0x3e21f0543d360b68U,
  0x3dfab3763d1f979cU, 0x3dfb0c42bd51c3a8U, 0x3debe2143e28c2b3U, 0xbcddc5ddbe15575eU,
  0x3ca90548bd0fde48U, 0x3dfd2ceebe282cbfU, 0x3dc80b37bb528900U, 0xbd701dca3dbea812U,
  0x3de38556bdbc93fdU, 0xbe19ec873dfef98aU, 0xbd238230bd9a82c4U, 0xbd84be093dd7c482U,
  0x3db0067ebdce1bceU, 0xbdb0c09cbd7b5556U, 0x391579603e0df5bbU, 0x3e1fefbabbb2cfa0U,
  0x3dbaf68abdd48570U, 0xbe0b67ce3d04e144U, 0x3e20b9a13c2452d0U, 0x3d07f7c3bcf340f8U,
  0x3c375170bd423cb4U, 0x3b4977c0be1c2d23U, 0xbe4559493d857d24U, 0x3be121fc3c5e5270U,
  0xbe0758433e34f881U, 0xbe334a97be3f348cU, 0x3d222e3abd7ba2bcU, 0xbda9cf29bde65eb4U,
  0xbd61b5943d8db1eeU, 0xbdef7f90be304aa5U, 0x3e205dfb3e319597U, 0xbcbc98b1bd793ef0U,
  0x3d57af64bccfb520U, 0x39fff400bbfe3025U, 0xbd8412d9bd497f4cU, 0x3c9b4cdf3e12ad1bU,
  0xbe3894e1be027c3fU, 0xba8143803de1b55dU, 0x3dd80aad3dae0336U, 0xbe0577ad3e055955U,
  0xbdc464e1bdf63eafU, 0x3d4735dc3e1de363U, 0xbe463a8b3d9ec93eU, 0xbd727326bdb5f03eU,
  0xbc262ea03df28dceU, 0xbddb044cbd717397U, 0xbd8aa0d93de4845aU, 0x3cc2f283bdfedbfeU,
  0xbd96a4cf3e1e87a9U, 0x3e0f1c99bdffabfcU, 0x3dd2a321be25aa22U, 0x3d3eb38dbdf5cd33U,
  0xbdd5de043e311739U, 0x3d996c1e3deaa809U, 0x3d8fba353e09df9dU, 0x3ad7f0133ac9f100U,
  0x3b407b40be14d4a8U, 0xbd8f0ad3be227834U, 0x3d7ab9e63bd41e80U, 0xbdeea8523db3c51aU,
  0x3dca60a6bddc6a57U, 0x3d1d4aa83e06ebfbU, 0x3dbed017be09e5feU, 0x3d5da1273cff0930U,
  0xbe1f7d223d8e4ed6U, 0x3ba0efa0be3877bdU, 0xbdcc09733de14262U, 0xbd4a47e7bdab7ab4U,
  0xbd94a5b03e36d039U, 0xbdfb8934bcfcae8fU, 0x3e014f093e1758a5U, 0xbd9fe2463e119957U,
  0x3de5723a3e1e259dU, 0xbd57993cbdc62ddcU, 0xbddb1c843e39026dU, 0xbda569ccbe08b252U,
  0xbcd85490bce548e8U, 0xbdbd937b3afb0e00U, 0xbda96e39bdf609abU, 0xbdf31c41bb243400U,
  0xbdd0eae6be2a0471U, 0x3e130eb13dd4ced6U, 0x3dc090e93df5569eU, 0x3e0e46ed3da6000eU,
  0xbd91f602bc731910U, 0xbdafd4583d03f354U, 0x3e0895003e27b571U, 0x3e2839d53e3b45abU,
  0xbdbd9bad3e1b58b7U, 0xbc5c69e03dbc8996U, 0x3dadc3b7bca824c0U, 0x3d0414e8bd364370U,
  0xbca0a570be204bccU, 0x3d5ce734bd5183a4U, 0xbdfb985cbc9baff8U, 0xbcc259b8be0d844cU,
  0xbdaa3bb8bd953573U, 0x3e0a48473e041639U, 0xbd940814bd0a7c6cU, 0x3e28bea03e304bcbU,
  0xbe30fb85be02ce7dU, 0xbc8b3710bd1fe4c8U, 0xbda77f0fbdcdccf1U, 0xbd8a08ad3bd561a0U,
  0x3dbb6aea3ddd056eU, 0xbdbee0d8bdecac3fU, 0xbe3089aabd9443cfU, 0xbd2341c93db483c6U,
  0xbe0ddf6abb2a1540U, 0x3dfb503e3c9660b0U, 0x3cf046b5bd265eb0U, 0xbddcd5d1be138183U,
  0x3e325ca1bd9342e8U, 0xbc9191283db3ee3eU, 0xbbfd2b16bdb94464U, 0x3e23476e3d6ee6ecU,
  0x3e08438f3dedd2faU, 0xbba397c0bdd57501U, 0xbe36b1f53d94b526U, 0xbe1e788d3cdfc618U,
  0xbdc0c8d73d821300U, 0x3e23e021be1738eaU, 0xbe2576403cb56eb0U, 0x3dbae81a3e000bffU,
  0x3bf032803e39c0f7U, 0xbd5575e0be394d7fU, 0x3e39964dbe149a38U, 0xbe2940533e2c8fddU,
  0xbd1335f03dfe2782U, 0xbdf564e13c139d20U, 0xbe11c2283e32b007U, 0xbd902f56bd3f7234U,
  0x3dd9b45abc938778U, 0xbe213ce03ddbe426U, 0x3dba368abe0d375fU, 0xbd934c653d4ac9f0U,
  0xbe2a9069bd7797d6U, 0x3d88635ebd78550cU, 0xbd33af003cdf3d90U, 0x3cc8ce403e131307U,
  0xbdd27d7abc1de640U, 0x3e2934413db77066U, 0x3e16fd91bd9c5119U, 0xbd899fcf3c49a2e0U,
  0xbd9119e5bbac4960U, 0xbe095540be019d6fU, 0xbe2868cebda7864aU, 0x3d33b684be2e7544U,
  0xbc60b1e0bdb69b31U, 0xbe3836883de9a51eU, 0x3e36b42d3d8d0492U, 0x3d7ff410be10c62aU,
  0xbe141134bcd4ede8U, 0x3d91e632bddaa728U, 0xbdae696abdbd74f2U, 0x3d083294be30c797U,
  0xbd0f36f43af8a180U, 0x3e3cc2cb3e1ae619U, 0x3e182d273d959052U, 0xbe35c1f2bd42956cU,
  0xbe1e7a333c908ca0U, 0x3dfd23fa3d7772a4U, 0xbdb5db023dcbd35aU, 0x3dd8707abe21ea17U,
  0xbd6ae8283d49259cU, 0xbe30cf173d2ce114U, 0xbd24124c3e2ca911U, 0x3e1f7db3bd0c422cU,
  0x3e2a27573d0b7fe4U, 0xbd2937c43e1713cfU, 0xbe1c74cdbd78686eU, 0xbc8e2278be202d00U,
  0x3e2a743bbe36ce8fU, 0x3d5cc42cbd2c66acU, 0x3d29ed74bdd65412U, 0xbe3787c8be34815bU,
  0xbcc9e0e03c8714a0U, 0x3d86b52a3e0c2d87U, 0x3e0b0b67be18b06eU, 0xbd8a5ae4bc72bea0U,
  0xbd09c93cbdca6735U, 0xbe0d28efbe1498d5U, 0xbe019994bdf3867cU, 0xbbcd0020bdbdc2baU,
  0xbe040fe0bd9e14dcU, 0xbdd10b473aaf5480U, 0x3d5741dc3cffd248U, 0x3e2ff8413de72f9eU,
  0x3e0fdecbbd3d3464U, 0x3d73ba6c3e36c19dU, 0x3e20225b3dde9b6eU, 0xbe328364bce0ecf8U,
  0xbdda6d28be230cbeU, 0x3dfcf9463e3bc983U, 0xbe0cfe13bd1faa40U, 0xbcbf5128be23bc41U,
  0x3e294551be0be0c7U, 0xbddfcc1a3cc10160U, 0xbe2452633e370923U, 0xbcfa08483c12ba10U,
  0x3d778c043ce6ccf0U, 0xbe1853debd1e4a78U, 0xbd4917203e3c8675U, 0xbe05919ebe082339U,
  0x3cc6d1493c7f7a60U, 0xbb97aa233c7acf5aU, 0x3cbfd5533a0835e0U, 0xbcade1bb3cf0c7abU,
  0xbc6067663c00b3abU, 0x3b65ff5fU, 0xbcb558b4b9d96b57U, 0xbbc96d2aU,
  0x3dfcbf3a3cf70ea2U, 0x3d4662c0bc9f36bbU, 0x3dc8c4223ded35c0U, 0xbdc0aacc3e48cdb7U,
  0xbde231723e4cde82U, 0x3e23c069bcc79f22U, 0x3e51f085bc9fd831U, 0x3e0a580d3d114597U,
  0x3d8a98d5bd8ef434U, 0x3d8dfb7fbdb125a1U, 0x3d8425053bb6b863U, 0x3c2aa21ebe4608bbU,
  0xbe3d92fd3db48709U, 0xbdd9f70fbc8707aeU, 0x3d0ec4e7bccf8588U, 0x3dd09a263c16bf10U,
  0xbdae2103be1b7c4eU, 0xbe21ac3cbca9f2d0U, 0x3e2361a73e173619U, 0xbe31abbc3dd52542U,
  0xbcb65e883a9d2080U, 0xbd80352fbdac427bU, 0x3d8ae70ebd3a94e0U, 0xbd8a18723e28bd49U,
  0xbd434aab3d940cb6U, 0x3e1b5f08be0106c8U, 0xbd302119bd8b5ad9U, 0x3ca1134b3cefa5c5U,
  0x3d443e13be078fadU, 0xbc84cdb8be0ac257U, 0x3df54e6cbdf20b1aU, 0xbddda29bbdc0bc06U,
  0xbd85d514be3535e3U, 0x3d7223d8be138361U, 0x3dff98f3bdbcf259U, 0xbdb86f2e3df1d447U,
  0x3d6dc2d03e1e9462U, 0xbd58c58cbcfbbd09U, 0x3cc1c478bceb67beU, 0xbe0ee14ebdb182f6U,
  0xbe4d31f93d95fc30U, 0xbe072694bd80ac7eU, 0x3d79ae9a3bf7c1dbU, 0x3d9af404bdce5d2eU,
  0xbd046d793e091405U, 0xbe09bc23bdce1facU, 0x3dea0a7b3d9d9d4cU, 0xbe2342a8bdb2721fU,
  0xbe1cdb7dbd10da7bU, 0x3d4e19073db97a12U, 0xbc5d529ebe31b788U, 0x3e28aa20bdfd5b3fU,
  0x3e2fa6643e32220fU, 0xbe36f116bb587d80U, 0x3e1024ffbe052248U, 0xbdd37513bd0b50c5U,
  0xbd8ae616bdec5109U, 0x3d136bf0be23c3f3U, 0x3e35588bbcaf6310U, 0xbe15e9963c94ea80U,
  0xbdf2bf3d3d4b532cU, 0x3e3b7c49be2bd8eaU, 0xbd2766f43db370baU, 0xbe2612acba01f600U,
  0x3d95fe4e3d93e048U, 0xbcd112dc3e1b3d6dU, 0x3dc035ddbe21d2f3U, 0xbd233d873e285cfaU,
  0x3ce29998bd95c214U, 0x3e087d8b3e1e4a58U, 0x3e4079573dfbb6edU, 0x3db7905a3da8de03U,
  0xbc6509f03d04b3d0U, 0xbe221d073d0a370cU, 0x3deed09abd792b68U, 0xbe12ea74be1d0c37U,
  0xbd9cb8fa3ce195b8U, 0x3e0b267fbe1b9933U, 0xbe08d581be1f7935U, 0xbde522483e0191b3U,
  0x3e055fb6bdbb8029U, 0x3c9288a4be0bdbeaU, 0x3dee846a3e88e58dU, 0x3d8e99b73e0676f7U,
  0xbab2ea863dc0fd17U, 0xbdff216a3d4518dcU, 0x3d367b7ebdd1ad82U, 0xbde74bd2be342f51U,
  0xbe03b549bd4a712cU, 0x3e01480dbe04cf02U, 0x3c733380bdaa328eU, 0xbdae8e9ebe165660U,
  0x3e221c9f3d4fa088U, 0xbcb790383dc81dfaU, 0x3e25df5fbe0c3049U, 0x3e0d1557bd81119eU,
  0xbda4caa1bdf5e7d0U, 0x3dfc959e3d7f5274U, 0x3daf44b2bd8f2bb7U, 0xbd265e5cbde555aeU,
  0x3bfb9c803da05d76U, 0x3ce826083e29f1a3U, 0x3e2321393d5b7d68U, 0x3dd0a2963c903b60U,
  0x3bfd11b93e1ebf39U, 0xbe322d613e356096U, 0xbcd89c6b3d132c31U, 0xbcaaa0583e3d3265U,
  0xbdd3280dbdf88945U, 0x3dd2bf663995d830U, 0xbdbc6e0e3dfaa91aU, 0xbe0acd64bcbe3523U,
  0xbe015a37bd05bfb0U, 0x3c5f2d703e1514dfU, 0xbd4a9860bdc2bb27U, 0x3e1571253e267b43U,
  0xbe3711f0bded13abU, 0x3d2e1ef0bc1b6590U, 0xbdda767bbe02e072U, 0xbd3e22acbe2cad0aU,
  0xbe2306e53e3f8c76U, 0x3d2f6af7bd8972e1U, 0x3d9873b73e0ba4cfU, 0xbd2978ce3d8f1af1U,
  0xbcae2fe4bc01cee0U, 0x3e3c88fbbd9c7e86U, 0x3db054f83e0f97f8U, 0x38ca7800b9c8859eU,
  0x3e2bd722be1893fcU, 0x3d21a5803d056069U, 0x3e0025bebe059d13U, 0x3dadbd20be0f92f8U,
  0xbe3bd213bdb83603U, 0x3e3b04dd3dc8735aU, 0xbd540e05be3387c9U, 0xbdde87833deced96U,
  0x3dab01f4be373e15U, 0x3c428f65bd6a832cU, 0x3d979bb0bc8759deU, 0x3e0cf0a03cf3d9e8U,
  0xbcfa9dd2bd8e6ddeU, 0x3d80e12cbda3b617U, 0x3d3b6dac3e21d9c2U, 0xbe2256233d2ecf58U,
  0x3dfd62a63d4deadeU, 0x3dedd65dbd6a44d9U, 0xbdcfe5873e4f9657U, 0x3dc84f193e1c2a3dU,
  0xbe2675c63de224e5U, 0xbe02ce723df5907fU, 0x3e0005433dc13436U, 0x3dd2c592bd4cfcf2U,
  0x3dfe01813df4a55dU, 0xbe3040cebe3ea656U, 0x3de286173db2239dU, 0x3d0574543d55830dU,
  0xbe0e3d2abe02491aU, 0x3d7c247c3e092f74U, 0xbcbfc6de3d803700U, 0xbdc6ccfe3dbd899aU,
  0xbe5b1c153dcd4b84U, 0xbdf892c5bded3fb4U, 0x3e064279bb60f04cU, 0x3d93bb613dc6c235U,
  0xbe2b4ceebdd251d9U, 0x3ce9f8f83da4fb65U, 0xbe356d513c4914b8U, 0xbdf34d9ebcd9bcafU,
  0x3cf692713de6163bU, 0xbd006fa8bd4fc079U, 0xbd9a41f9bd7f7a5fU, 0xbd5ccd16be094aacU,
  0xbe2dd10f3dda3bc4U, 0xbd57f2e0be384136U, 0x3dd97c6ebc540f9bU, 0xbca3d4a03d18ca23U,
  0x3e2af615ba0e53b3U, 0x3e00221cbd4a8733U, 0xbda10a3cbd43867eU, 0x3ce656333e2c6bb8U,
  0xbd699d613da0ad0cU, 0xbbf12d403de072f0U, 0xbe2b8d793ddaa232U, 0x3cbd89d8be12282fU,
  0x3e40906bbdc91c6bU, 0xbdc2be573dd2d649U, 0x3e172e1a3c58586bU, 0x3d0e311a3dd1a1fdU,
  0xbe17066fbd053c40U, 0xbd018eb4bc96ce81U, 0x3d85a1f03e286984U, 0xbe2e30a93da92fc3U,
  0x3dd148183e2f78ffU, 0x3e2abc893da4a1e1U, 0xbe2c7f64bde956d9U, 0xbd364598bd42d119U,
  0x3e466aee3e3811a9U, 0x3d457f643e025cebU, 0x3e1fbb283e385ecdU, 0x3da31b62bdb17d35U,
  0x3df153be3df313b2U, 0x3db938c5bdf44308U, 0x3d8a4459bd84211cU, 0x3b57245cbe5e0ba2U,
  0xbdbb1473bdb25206U, 0x3e1ba541bd52d7acU, 0xbe2589313dff4835U, 0xbd7c5d7ebe285590U,
  0x3d88cca73e12a8cfU, 0xbd41dd75bd1f1b21U, 0x3e010da2be6cc355U, 0xbc34da153da7fe74U,
  0x3dcb970cbd87d9d5U, 0x3d564684bd8585d3U, 0xbe1fc184bcd16dfaU, 0xbd93204abd88dec0U,
  0x3d9015fdbe2e7014U, 0x3e1b65f6bc7141c0U, 0x3e05758d3e49936dU, 0xbdc7d5f5bd815af9U,
  0xbe3106f43e1581aeU, 0x3dc677b6be12833fU, 0xbe2c0fdebe3d7f09U, 0x3dbef2c6be34ff59U,
  0xbc2f7e20be0a974eU, 0x3decb5dabd3e08b0U, 0xbd8a0d9fbe29ebddU, 0x3dad380ebe070e2dU,
  0x3dcb944abdbb6172U, 0xbd95530abe3c8a6fU, 0xbe0c81403d86d236U, 0x3daea40a3d99379aU,
  0xbdbfae5ebe2732e4U, 0xbbe6e2c0bda7c003U, 0xbe162699bceb4b50U, 0x3d191914bd38d3bcU,
  0x3cf476403ddf5d7aU, 0x3e23b19f3d3604f0U, 0x3d804b1c3e2b5501U, 0xbe2844163d743534U,
  0x3dbb3b363da93e98U, 0xbd4fc3ec3d4abcbfU, 0x3c235b783e059749U, 0xbcee82bebd0b614cU,
  0xbdca265a3d96a898U, 0x3dba062abc418f5eU, 0x3d0af93fbc1fec1aU, 0xbd90e685bdb865dfU,
  0x3dbfe4b53d8b5bc0U, 0xbde3f46dbe2979ceU, 0xbe2385c13d2b27dcU, 0xbe1df73e3e0a0e28U,
  0xbdec7b0dbb62407bU, 0xbe370f98be139245U, 0x3d36e19ebda43debU, 0xbc287d50bdc7081fU,
  0x3bfdc9ff3c44856eU, 0x3bfcb7e13e4c182aU, 0x3bc12b09be806c14U, 0x3c30afa03e3fef1fU,
  0x3b00f87f3e50acbcU, 0xbd3e71783b6f9694U, 0xbe1065bbbd0be646U, 0xbe087c56bdb6e3b6U,
  0xbd1180ef3d9bd26bU, 0xbdd2c2153e009048U, 0xbe058ebd3e144c91U, 0x3dc17dc4bd209eaaU,
  0x3d33ec44bd0924d9U, 0xbd88a5dbbe2ef47bU, 0xbdf70d04bd96e49aU, 0xbe1ac634be061be6U,
  0xbd5765ac3dc364c2U, 0xbe35d163bd91627bU, 0xbe36473e3cca3928U, 0xbe1fe3eb3d05b0c4U,
  0xbdd39504be26d19cU, 0xbc213a303e002c2bU, 0x3d6876903d0e93d4U, 0xbc1676d0be28fddeU,
  0x3e0acdbfbe3742b8U, 0x3de52bdabd6e32eaU, 0xbd179c92bd599a55U, 0x3db808783dd06872U,
  0xbe07392fbe213965U, 0x3daf1846be04e698U, 0x3e05965e3e2d5963U, 0x3e0b06ffbccb1634U,
  0x3d35dba53deb756dU, 0xbd1c88ddbda2a702U, 0x3e1d69abbd9009b0U, 0x3e0475c73d444f9fU,
  0xbde859fbbe1bb16cU, 0xbe21dbf73be73f18U, 0xbdf29feb3d5ddaf3U, 0xbe08f055bda82df0U,
  0xbd81a9bd3d25ab5bU, 0xbcb2f4053e16a340U, 0x3de3e65bbd9fd467U, 0x3e0e83dc3d9c7ee6U,
  0xbd9306bd3cd320c1U, 0xbe0df5773e1a802dU, 0x3e0af803bdfccc54U, 0x3b8cacc0bd38f274U,
  0xbd3f8cecbc7d9230U, 0x3dad2d7abd38fb88U, 0xbdbf2c623bad1240U, 0x3da4ef66be0e5690U,
  0x3e3cfd893da4856aU, 0x3e30226f3e1bc54dU, 0xbdffda24bc1e3e20U, 0xbd6030e0bac6ad00U,
  0xbdc277d63e356106U, 0x3d19f603bd57b035U, 0xbd62acf43e33e09cU, 0x3e4526a43d0a4886U,
  0xbca7edb13dea3504U, 0x3e185da5bd70bdc7U, 0xbba4125abe2bcc51U, 0xbdf68dd9bcc6294bU,
  0xbdcfc7a8bce5a2d8U, 0x3d7344283e11bea3U, 0xbdf043533e2942dfU, 0xbdeb51debd15c158U,
  0xbde654923dca7042U, 0x3e20f1853de5686aU, 0x3d4b8dd8bd1a08a8U, 0x3dd74a4ebddc6a33U,
  0xbd8b2d59bddf9f98U, 0x3de804cf3d3a22d7U, 0x3d4666813e4789b1U, 0xbdd031e93e227184U,
  0xbdbf074bbd50715aU, 0xbcd084903c337660U, 0x3c8a1f20bc762560U, 0xbdc55e06bdaa7a85U,
  0x3d5c430e3de77d08U, 0x3d20adcd3dafd247U, 0xbdacf9fe3bb7b0e9U, 0x3e4b25223dabce1fU,
  0xbd242c3a3d8c51d2U, 0xbe0770b1bbda63b3U, 0xbdcfae24bbbba426U, 0xbe2064d1bd0ff555U,
  0xbc87db633e068bd5U, 0x3de5cb22be1bd047U, 0x3d9da5a2be30f38eU, 0x3c4dd8e4bcd7b8cdU,
  0x3e0100bdbd4152daU, 0xbdb2f2bdbe1d7cf4U, 0x3e07ea8c3dafca34U, 0xbe33937cbda259afU,
  0x3e1dc5493d9a8693U, 0x3b40fdafbd916da5U, 0x3e16e824bda18846U, 0x3e1f17b9bc52e60dU,
  0x3e0a360e3e229c1fU, 0xbd9637dabe23df61U, 0xbdb84e6abd3d13f7U, 0xbd5d88403e396944U,
  0x3e314505be2aebaeU, 0xbe031adc39007800U, 0xbe2153c6bddb43e3U, 0x3d95bd4ebdee568dU,
  0xbcf76040be132bb9U, 0xbe0116333da2597eU, 0xbe3514c43e13b057U, 0x3db65c1ebe0be1e8U,
  0x3df608f6bdcb41ccU, 0x3e0bceafbe2c9b5cU, 0x3db7bd06bd943313U, 0xbdbc4e15be3a5e17U,
  0xbe289d8e3c0f5d40U, 0x3e34d27b3c974c30U, 0xbc6ba6b03d65f50cU, 0x3d5097383e240f2bU,
  0x3daa704b3da63ce3U, 0x3e31a06cbd2e3d7fU, 0xbd9d5af6bd70db1eU, 0x3dca0f8bbe21f0b8U,
  0xbb0bcaf7bc3dfb5eU, 0x396880003dfeffa9U, 0xbdab7130be3547a6U, 0x3cd7ab10bc95ad98U,
  0x3e6049e93d514a96U, 0x3d18e78a3e07737fU, 0xbd9b2b39be3916bbU, 0xbd7512253e449857U,
  0x3dac59c03e005eceU, 0xbdf78b7e3e122345U, 0x3d770d5ebd80b97dU, 0x3cfaab803d9d4397U,
  0xbd2cb67cbd051f54U, 0xbdfe36b83e39a2abU, 0xbd48bdcc3e0c7febU, 0xbd5683c83d2f09f0U,
  0x3d1e8738bdf2109eU, 0x3cffa5383cb08248U, 0xbccf97503d1212dcU, 0xbd77cc3a3dea0446U,
  0xbe1b8a4dbd96d8abU, 0x3c3fe9c03d7a687cU, 0xbcd9f5903cbc2e88U, 0xbce94a78bdc8c14aU,
  0xbe2f248bbdef980dU, 0xbe324877be2cb7c2U, 0x3e203557bde90c02U, 0x3d50dd48be39726fU,
  0xbdf615123cef30e8U, 0x3e0a12dfbd108e1cU, 0x3e0674b5be2d06c6U, 0x3dd8e3febcc3a1f0U,
  0xbdc768cdbe0393e7U, 0xbd9fa04ebe277c67U, 0xbdb7c395bb37b1c0U, 0x3e34015fbe00d4a1U,
  0x3d2da684be11c580U, 0xbe27c54d3d5eb8c2U, 0x3e0740c03cd8c9eeU, 0xbe1c0dbd3de591a1U,
  0x3dbc29b23e370cf2U, 0x3cb2abd0be2e66e8U, 0x3e35f61b3e27e1abU, 0x3e1238a33c986e4fU,
  0xbb468a40bdfbd927U, 0x3e1f5979bd6d9428U, 0xbdd9ae6d3d815f42U, 0x3dc5312a3db9b52eU,
  0xbd2782a4bdf6ddcbU, 0x3d606778bd5c6808U, 0xbdeb6bbd3e2dbf8dU, 0x3e08b74dbdc65114U,
  0xbe1e4d58bdd953b9U, 0x3dfcf1163d7b76e0U, 0x3dad358a3dbd9ba6U, 0x3e2b27afbdf377daU,
  0xbe272d10bdfd6f9cU, 0xbd98acfb3d47d938U, 0xbe1a1ecc3c011890U, 0xbd10f794be339994U,
  0x3e0168dbbdb2a99cU, 0xbd365ef6be4587cdU, 0x3d32d37e3e3c5d0eU, 0x3de17cbe3e351a0dU,
  0x3d2a98b3bdcad45aU, 0xbe19e4703c435367U, 0x3deb1a58be1e821fU, 0x3d30ad283cb84a1eU,
  0x3d413f953e4301fcU, 0xbd4bf866bd8c609aU, 0xbd5bd0dfbda9c546U, 0xbdbc58f23dbb65e5U,
  0xbd22e493bde26695U, 0xbdcf6f6cbe2c572bU, 0xbdc01c08bdb3dc57U, 0x3ca2aa703e2b89daU,
  0xbe0f475b3c24f728U, 0x3e278c873c35f210U, 0xbd9b53323db45a95U, 0x3d302d9dbda092deU,
  0x3db550c23d92a08bU, 0x3d92f372bd4b2778U, 0x3d741a413cc2cbb6U, 0xbca1b890bce0d3c0U,
  0xbe55a1143e1ddc7cU, 0x3de26d68be059e45U, 0x3dfe41b83e12640cU, 0xbe40ec11bdf11a10U,
  0xbde8c41f3dff6c0aU, 0xbdbb1aaf3e0bd1e5U, 0x3d82376bbe32a111U, 0x3e147f77bda7ae06U,
  0xbe0c4285bceb9618U, 0x3e2f2a89be2bd680U, 0x3deef08a3db0eeb2U, 0xbe3540403d7e42a0U,
  0x3d65a9043b74af40U, 0x3e1287073d9a7bfaU, 0xbdf1e79b3c521dd0U, 0xbe1134d4be1b14b3U,
  0xbe4704433d1a2da8U, 0x3e036d22bdf2072eU, 0x3e0650c2bcbb2f5fU, 0x3e13a3793c94b303U,
  0xbd3f1f75bd628f64U, 0xbe045b67bd189184U, 0x3d94f9a0bd01d864U, 0xbd90b8573d2c06a9U,
  0xbc817e6fbb4c9468U, 0xbd98f7aabdf43649U, 0x3e2d4df0bd79db19U, 0x3cd72c573d3780b4U,
  0x3e023e403bb96027U, 0x3cef88e03da576aaU, 0xbd503dc4bc7d1c60U, 0x3dfb0d8a3d9cb2e2U,
  0x3d8a64a6bdd37364U, 0xbc6534103e292517U, 0x3e14ce55bc4f8520U, 0xbdceb8e3bde3bfdeU,
  0xbdc0993abe1be11aU, 0xbde9310d3e24aa95U, 0x3e241c67bdd573abU, 0x3e212599be0b1a2dU,
  0x3e1028343b570519U, 0x3d42d75abe215c30U, 0xbcc450363d5ec5c9U, 0x3d4e3b08bdd7c282U,
  0xbd8fe0443e04d3d8U, 0xbbed39c03e09a5d7U, 0x3dec22f63e31b921U, 0xbd41554cbe306730U,
  0xbdad53e8bda09991U, 0x3e231b453d0ed6e4U, 0xbe38ec953e2ab5e1U, 0x3cc487283cb15140U,
  0xbd9f78b9be044827U, 0xbdbd6910be0210baU, 0xbdffa47cbdc1f8d3U, 0x3d7ef55cbc32b330U,
  0xbdc0cd693d2dbcccU, 0x3db667a2bb9d8180U, 0xbe0149963d657854U, 0xbde8caabbd4d8454U,
  0xbd8a9cf8bddcd383U, 0x3df72886be30d512U, 0xbe2241933d548668U, 0x3d8a82fa3db1accaU,
  0x3e1fc12f3dc1b391U, 0xbda8f67ebd8c61ebU, 0xbe1c0005bcf46807U, 0x3de3d80f3d8b4050U,
  0xbdb93d3a3d88202fU, 0xbd25b1c43d6a4cfeU, 0x3dbe28103d5e8226U, 0xbe18d896be0e01adU,
  0x3e49fde7bdab35c5U, 0xbe088e533e61c8a8U, 0xbe17bda8bd6c8affU, 0x3e1f86583dfd1b88U,
  0xbe177d613bb5da93U, 0xbdcd3fdbbd378b42U, 0x3cd0e67abe2f68deU, 0x3b4d7840bd9117c6U,
  0x3e5d10703e37a63dU, 0xbe14df0fbc5087f2U, 0xbbde2622bd8c51ddU, 0xbdd44896bb2b41b0U,
  0xbd5484053df750f4U, 0xbe3289783b7aef59U, 0x3dbab10dbd12fec0U, 0x3c559a903df8d187U,
  0x3e29da613dcf68c4U, 0x3e2e0d59bdc27a59U, 0xbce26e1a3df797fbU, 0xbd9cd86d3da32b81U,
  0xbe217a64be18849fU, 0xbdaa9d123d8eb172U, 0x3e46c31d3bab82ffU, 0x3e1232ed3e315aa6U,
  0x3e4b02343e4d934eU, 0x3d89c98dbdc07260U, 0x3dc28cc23e12d7d4U, 0x3e4858983c617e65U,
  0x3d33d3913cf8e3e2U, 0xbcc49a88bd017b57U, 0x3d4ed47a3cbff72dU, 0xbc8fb1903e155231U,
  0x3db5e6ebbde7f86dU, 0xbe05a944be819cb5U, 0x3e2d85be3dcd5380U, 0xbd90a8473ccfe634U,
  0x3db4ae423da357fdU, 0xbde2bd6cbdc1d136U, 0xbd9b64f93dc9711aU, 0xbe33a33d3da53adaU,
  0x3dddd672bde6eb36U, 0x3d1ef9993dfdb266U, 0x3e3a5b813db1eba1U, 0x3cd14aa93de6e6caU,
  0xbe11f5cc3cf9a97dU, 0x3cd8c018bcb7b1d3U, 0xbd84624bbd7bb3baU, 0xbe1cba16bdf20249U,
  0xbe0f514cbdab1874U, 0x3d60c6a83db6900aU, 0x3d2b28383d94198eU, 0x3d91f17a3dc43aaaU,
  0x3e0ad50bbe1c5fbeU, 0xbd428b203be60180U, 0xbe11efa0bdfe9379U, 0x3e170ca53c39e610U,
  0xbd8847543d97b0c8U, 0x3d26bf0a3d98bb7dU, 0x3dbc861f3bfdfe1aU, 0xbe39d6563dd9bb7cU,
  0x3d391e7b3d94d593U, 0x3e0da72d3e379924U, 0x3d8ea2453dc955ccU, 0x3e311419bb1a5d80U,
  0x3d9d2f3cbd1affd0U, 0xbb97a1ca3d3fc82fU, 0x3ad47e78bb891b80U, 0xbd8664a63de3dac5U,
  0x3b221add3e1be28bU, 0xbd90ea83bdfac2d4U, 0xbe1d93fbbcdd27cdU, 0xbe370a7c3db35c9cU,
  0x3cb484d53e63a7ddU, 0x3e01bbd9bc94732cU, 0xbdb00efebe37ae45U, 0x3d0385ddbd3430b3U,
  0x3e33a730bcc19717U, 0xbde8e3743ce5c388U, 0x3e390e1d3d45ce6eU, 0x3e0adbb33d9ece60U,
  0x3adf836a3de805daU, 0x3e001702bd454586U, 0x3daaa8313d511fceU, 0xbe0b19863d448bbaU,
  0x3d75f905bdfb71daU, 0xbc004120bdcdc132U, 0xbccef2c43e194ffdU, 0x3d0fa8303e1547c7U,
  0x3e0dbfba3df4a088U, 0x3cb58652bdd56990U, 0x3c4068ab3e5f488aU, 0xbc6849643e22145eU,
  0x3dee01a6be0d1299U, 0x3e29ae17bd9f663eU, 0x3e3643b4bb9ae6f0U, 0x3c66b180be2bcb37U,
  0xbdd0b774bc365f90U, 0x3e3210fb3e224255U, 0xbe0c23e1bccce710U, 0x3debddd2be02e5b5U,
  0xbe1ce592bd31b958U, 0x3e2f2fa5be236506U, 0x3da27906be1131f2U, 0xbe2b33f73e0c4259U,
  0x3e4ee96f3e444823U, 0x3db57a84be2830c3U, 0x3e3e7f4c3daf050dU, 0x3df563b8be0477bbU,
  0xbe0c4a2dbdb49267U, 0xbdfbbd583e25d9c4U, 0xbd9c5d43be2c3758U, 0x3e35d4edbcbc82a4U,
  0xbde09ab6bdc9dd43U, 0x3ca50cd83d79adc4U, 0xbd0fa9a83df516baU, 0xbe0bbb1cbd5ac794U,
  0x3e1af3c7bccd2828U, 0xbe235b463e34a983U, 0x3e0d09f93e2b453bU, 0xbe0365e43cbba7f0U,
  0xbda5d8d53d13a199U, 0xbd3e036a3cb6c0c7U, 0xbcee52a03e25c72bU, 0xbe1a28c8bd0c3d43U,
  0x3df9a3963d6b12bfU, 0x3d5838f4bddfa884U, 0xbde79c613d1af9c8U, 0xbda5bc52be2ca0fbU,
  0x3cddc319be33ad06U, 0xbdf21ea6bdec5e9eU, 0x3e021761bdb3835fU, 0xbe0087a93d80d371U,
  0x3dd2fbea3d08530aU, 0x3e34ecb7bdf16a7eU, 0x3d99d37e3ca8948dU, 0x3d864d723c440570U,
  0xbe481507bb5b87e3U, 0xbced0f88bdc4c4bbU, 0xbe2b1294bdee4afaU, 0x3e21dd4b3d22fb1eU,
  0x3e29d0933dc51d16U, 0x3d8615eabd716e9eU, 0x3d0348dbbd09f177U, 0x3def5d1a3e178f7fU,
  0xbd085ddabe2bbf93U, 0xbd986a05bd66d29bU, 0x3e376d773e0c14bdU, 0x3d4911323e33f14cU,
  0x3dbb751a3e1fbe2eU, 0x3dea8f363da0d00dU, 0x3d8481f23e2f87f7U, 0x3e3915e3bd447ba0U,
  0x3d91792a3e158556U, 0x3e313d8c3e0ceb2cU, 0xbd9aee00be0037c6U, 0xbb9a33573cfc8ba2U,
  0xbe1f69fdbe271e1dU, 0xbd895450bdea5a2aU, 0x3dbc67d1bdc7e1e2U, 0xbcf8ef58bdb75cf9U,
  0x3e1b9da03da2808bU, 0x3dbf803ebdb19ff9U, 0x3d472d58bd1c8e19U, 0x3cc52dd7bd91a101U,
  0x3d7870643e178e5eU, 0xbd533b7c3c0cfb3bU, 0x3e094d643e1312d9U, 0x3d9c334e3e310262U,
  0x3d449e2f3d95cc96U, 0x3e01d76cbdbd1d52U, 0x3ce8d52b3e1f4e11U, 0x3db41c353e4fb37bU,
  0x3dc181763ceb011dU, 0x3dce578abe2b0dc4U, 0x3dde6f7e3db69cd9U, 0xbd0a97e4bd17fbe8U,
  0x3c62df80be36eda5U, 0xbc8f43383d16dc40U, 0xbe020c0ebca4dab8U, 0x3dc0c3ce3df1a5ceU,
  0xbdb5c5a9bcde8fb8U, 0xbce92c783bb07f00U, 0xbdcba1003cc89ca8U, 0x3d7c4d60bc229eb0U,
  0x3e38ffcbbe188046U, 0xbd183188bd4de600U, 0x3ca357fa3cdfbff1U, 0x3dc264423cb02a0eU,
  0xbda15ed23ddca851U, 0xbe2e8bf73d9a8454U, 0x3d342da2bd7c6407U, 0xbd0591d8be0bfc7eU,
  0xbdedbb8cbd5c261cU, 0xbc41bce03ced67f0U, 0x3e090f05bc38f4f0U, 0x3cae86583ca66a30U,
  0xbe209e4fbd106264U, 0x3e2b1ed93e334135U, 0x3ca547783bdb8200U, 0xbdcf9ab83c9734a8U,
  0x3d17c7043bfd8220U, 0x3d8ce506bcc19518U, 0xbd6942203d9aebe6U, 0x3d2de80cbe14cbf4U,
  0x3d1f7378be3643f4U, 0xbd4678903d5b27a4U, 0xbccb0d90be036d97U, 0x3e1339d13d797b8cU,
  0xbd907e3dbd4cd4ceU, 0x3c84c8b93df509faU, 0x3d55bea03e0e7000U, 0x3d350450be27872aU,
  0x3d8645783da37905U, 0xbdf323a8bdccbf77U, 0x3e1c9849bd6501ceU, 0xbe1fb445be1e94b5U,
  0x3d8c2e53bca0479fU, 0xbad4a1d6bc22f0ccU, 0x3ddf2ca83d2989ecU, 0xbe29ebf93e07e45aU,
  0xbe1f6057be0f3a6cU, 0xbdf053b0ba8ae773U, 0x3df0f0993dbf4180U, 0xbd9bf3f3bdae79fdU,
  0x3b92a180bda05263U, 0xbdb144a6bc68c450U, 0xbcc3f0983d5447acU, 0x3db4d8eebc4fd920U,
  0x3df799eabd274718U, 0x3d762a40be348095U, 0x3c2af580bbb16500U, 0xbd2d0bbcbe376683U,
  0x3e1a84e43cccd00bU, 0x3dd08b963d133122U, 0x3d83cdf23c1b2f59U, 0xbe23521c3dbcff49U,
  0xbd8351a8bdefae41U, 0xbdac63123bca59bdU, 0xbdc51eeebd72340dU, 0x3cef09b0bddab15cU,
  0x3e079a67bdc9c996U, 0xbe1d7eda3d54c650U, 0x3d3287b03d9dd9cfU, 0x3d30acba3dff02eeU,
  0x3db1b20bbe0ee5b0U, 0x3d9ad52a3db1829dU, 0x3e05191f3dcd96d1U, 0x3e3b0285bd6600f2U,
  0xbe3082bcbcd965d3U, 0xbd29da59bdc76c7fU, 0x3e1d0855bc74c2f6U, 0x3e057aec3e153d91U,
  0xbcf8facabe058485U, 0x3d56d7f83e2b199fU, 0x3d78d074bdac31cbU, 0xbe260a9bbc92b7a8U,
  0xbe1be724bd8f47c2U, 0xbe183f953e114829U, 0xbe2951babd110218U, 0xbe1a9fb8bd11ea60U,
  0x3d0ff030bda53525U, 0xbdfa4ead3d962f1aU, 0x3dd6e856bbb820c0U, 0xbc6551f0bd789a48U,
  0xbd99aaf63ded9c26U, 0x3dbbd849be2b8686U, 0x3e1475b4be3b597bU, 0xbc7d478dbdb900b1U,
  0x3df97f47bde3334cU, 0xbdf06f97bda79fb3U, 0xbdae9703bd79bf12U, 0x3e068931bdb225b8U,
  0xbd3cb7b6bca94291U, 0xbd32b6e6bd9794a8U, 0xbd9da820bd7bf55eU, 0x3df51badbe0b488eU,
  0x3c991ecc3e0db62cU, 0x3bc3a8c0bde085beU, 0x3d9e8c9a3d47caf2U, 0x3e38ab673c9d4658U,
  0xbcb3afdf3c3ac5a4U, 0xbe1a28f4bdbb05faU, 0xbe1b923a3d1a13d8U, 0x3de635ab39f25c8eU,
  0xbccf28c53d7bfcb4U, 0xbd119b403d955d48U, 0xbd32f6983e3448deU, 0xbe38fe9cbe2c7dd6U,
  0x3da26be2bb1f6940U, 0xbdcdcbffbde5f177U, 0xbe0432c5bb465440U, 0xbd2a7a54bdabbae3U,
  0xbde72db4bdfe659eU, 0x3bbfee803d89dcd6U, 0xbb932780bd8db937U, 0x3e1aea5fbd5a1ac4U,
  0xbe3ecd8abdb3313dU, 0x3dbb3d6a3d57ead8U, 0x3df50f053e20da6fU, 0x3cb84de0bc2ef447U,
  0x3ce2266c3e271bd4U, 0x3e2c1b57bcb2d458U, 0x3e084fb83d17ec8eU, 0x3d9f7b86bdc774f1U,
  0x3e2a7157bd1b0d4eU, 0xbe4c1e593e213508U, 0x3dc174533d827526U, 0x3e3df03abd3d8890U,
  0x3c70ce85be04cb54U, 0x3e169cffbd81c770U, 0x3e4bc396bd02acc0U, 0x3e3944793d73ac74U,
  0x3dc96ae03cc2beadU, 0xbd4209323be719e3U, 0x3e2878f53ca685b5U, 0x3d5630553d9d8a7aU,
  0xbdf5ff5b3be542cdU, 0x3db28302be2a12a0U, 0xbda006fd3d965396U, 0x3e04e8d33dadb74eU,
  0x3d9baa43be0cd9c3U, 0x3e399524bde2accdU, 0x3dd3f5d6be18c964U, 0x3d87f2c93da62494U,
  0xbe30a0583dba23c4U, 0xbe151437bced5620U, 0xbe2194793de16ca6U, 0xbd22ce58be05bda1U,
  0x3e1d53a33d160739U, 0xbda9112b3e60bbcaU, 0x3e23625fbdf3b199U, 0xbcb8769f3e16b0a3U,
  0x3dd42daebd8f20adU, 0xbe0ede13bd496c55U, 0xbe2274e7bdae59c1U, 0xbdcff18cbcc841aeU,
  0xbe492e2d3e2239a0U, 0xbdfc4820bdefdebeU, 0xbd920991bdadf7b0U, 0x3d6ebcff3e0b4be3U,
  0x3d908b48be120ae9U, 0xbd2d60ac386920f7U, 0xbd1797993e2dcfcaU, 0x3e3853fb3c5090deU,
  0xbdf0973e3e5ff3b8U, 0x3e1a2d713e385712U, 0x3e044d29be4e3764U, 0xbd1c338d3d5dde01U,
  0x3da249f23e701ee9U, 0x3e024499bc4f453dU, 0xbd79904c3d9115baU, 0xbe05986abe24a654U,
  0x3e23b3a9bc4feba2U, 0xbd40a059bbf53a52U, 0xbdb091d0bded39d7U, 0x3d98020c3e446df7U,
  0xbbb5820abd6cf130U, 0x3e23d12f3d63098bU, 0xbca5c54c3c691157U, 0xbd7bbac8bdf552d1U,
  0x3d9abc7f3d93f669U, 0xbb7ac64bbe1671b7U, 0xbd4926fb3c712e2fU, 0xbdf4087f3c753595U,
  0xbe3267613df7eb38U, 0x3e17f8e3be04e3ceU, 0xbc606376be3be4b6U, 0xbd19dd68be1218a8U,
  0xbe025b773c3b935fU, 0x3cabcfa4bdf8b87bU, 0x3da32a88be3eb229U, 0x3e1b58bd3dd9fe51U,
  0x3dac8b3ebd25e4ccU, 0x3dfbb39ebdd531f2U, 0x3c9dd5f83d4d4f84U, 0xbd130fdcbdbf2e9dU,
  0x3dd28aa5be02882eU, 0x3da98286bd741258U, 0x3d858031bd187598U, 0xbca5f367be2f5f78U,
  0x3d2eeb353dedaa8eU, 0xbc3ae0a0bd950f5fU, 0x3d4a0b163e0453b9U, 0x3e19e03fbdb260c2U,
  0xbe2d3caa3d5c1134U, 0x3cf6b6043c829960U, 0xbda51522bdf25670U, 0x3c17bce63e22cf5bU,
  0x3d854665be321f7eU, 0xbd7da2683dcbf7aaU, 0x3dbe8cbb3c8563e8U, 0xbde386f4bc7024a0U,
  0xbbaa4ff9bdfb5d90U, 0xbdea4915bd67f310U, 0x3dd2ff1d3e0a58d1U, 0xbd72e7613de98122U,
  0xbde8d50ebe00a66aU, 0xbddc05523e35bf01U, 0xbdb48f02bd8239c1U, 0x3da3cf1abd2c9944U,
  0x3d32d4543e4146cbU, 0x3e2d2175bcd9a28bU, 0x3e03dbd23e2328b3U, 0xbd722d76be0f9f0fU,
  0xbcb651a73e3efc23U, 0xbdd59a30bdb824afU, 0xbcc35033be1871ddU, 0x3c93f9f03d6139cfU,
  0x3e26ca243e582436U, 0xbdeb4838bd3a3057U, 0x3d3f9aa83bbca6b6U, 0x3e1456eb3d8be2c1U,
  0x3dc6714ebe034501U, 0x3d008a54bdde3e9bU, 0xbdfc1041bd92ae05U, 0xbcf18a183e13ecb7U,
  0x3c188a30bcf20034U, 0xbe052bbbbdc687e1U, 0x3cc38507be3918b5U, 0x3e280980be34fbaaU,
  0x3c9ef4473d4aaba8U, 0xbaa5f600bdea77dfU, 0x3e3b748e3dacc5eeU, 0xbe23105bbdb2b5acU,
  0x3dabf541bd61f47bU, 0xbe1135763dfcbe2dU, 0x3e179c72bce6ab0fU, 0x3debe24dbd1dcf75U,
  0x3e224e863e0cb281U, 0x3dcbfef6bd10e9feU, 0xbd047ebe3da92d0fU, 0x3ddbca26bdef7694U,
  0x3d4620a33d08f3fdU, 0x3d8519783e1bb8a7U, 0xbd7d844dbe054920U, 0x3d97347abe04391cU,
  0xbce97d8ebe21e86cU, 0x3ddf72fa3e2909b1U, 0xbd0baa92be24cee1U, 0xbe3a8cbbbe3aab0fU,
  0x3d0e867b3d121b6eU, 0x3db2b9ed3d99f8b2U, 0x3d0b5ef9bd910858U, 0xbe187c14be2cad5aU,
  0x3e1a9fa1bd07dc8bU, 0xbca81a683be95920U, 0x3e19d8d33d8467c5U, 0x3d5335643cc03600U,
  0x3dcbade3bc838a90U, 0x3d2aac9e3d7f7b31U, 0x3d98cb8a3e0c0228U, 0x3da3f418be1584f5U,
  0x3cd44d13bdabb746U, 0x3cd573f0be349177U, 0xbd3cc58a3ce10cd9U, 0xbd7701683dac5041U,
  0x3c911cc23dda66aaU, 0xbe2bd725bd9fcb77U, 0xbe0f4f463e26027dU, 0xbdd97929bce3cbbaU,
  0x3da67fe1be2c58adU, 0xbe1e008fbdcebf66U, 0x3e018efabd555733U, 0x3d9d8df6be28d63eU,
  0x3c679f703db32382U, 0x3e2625803e08ae7fU, 0x3e18cbe63daed663U, 0x3e256d803e4209b5U,
  0xbe10e01cbe1cdeaaU, 0xbb8548403cf7ca5cU, 0xbc8e5241be1e2502U, 0xbc3016103d14199aU,
  0xbe24a2fd3e38184dU, 0x3e391742bcc7f098U, 0xbcaf93893d3287b5U, 0xbe347797be20fea0U,
  0xbcfd882d3dbf218aU, 0x3c6e3480bda6d176U, 0xbcdb32913daa68e2U, 0x3b320e803e11154bU,
  0x3d00c209bd26be87U, 0x3d6dafe6be3b1313U, 0x3df878673dafc09cU, 0xbce2e8ac3e56d5f9U,
  0x3d0c2cabbdb392e2U, 0xbde0a9da3e14905bU, 0x3e2d0465bdb6b297U, 0xba8129003d505aa8U,
  0xbe186a80bc829460U, 0xbc8bda603dc2738eU, 0x3d50c15cbda2e6e7U, 0xbdc7acddbd815665U,
  0xbbbe5aa0be0d8850U, 0x3da389e63e2de0bfU, 0x3dec631abe2549afU, 0xbdfd7c18bda06fc5U,
  0x3da5837cbd5056e7U, 0xbd5029ad3dbbab29U, 0x3d857b2bbdfa1cbdU, 0x3d13a30e3c665946U,
  0xbdf41b8ebe28fe4bU, 0xbe1725fa3e0ed785U, 0x3db5c15a3d464cdcU, 0xbd924694bda9439dU,
  0x3dc7cc84bdabf75cU, 0x3e222c2d3d5c78eaU, 0x3dc9a370be1ff291U, 0xbe0f19a33da0df17U,
  0xbe12a9e63e0ae760U, 0xbd5562f43db3053aU, 0xbe0790083d9e9bb2U, 0xbd87aed5bd49cb6cU,
  0x3e13c7f3be116d84U, 0x3d4aeef8bcb05e00U, 0xbe188f173da4f54eU, 0xbe38effabdea5600U,
  0xbd14e5f0be279724U, 0x3d073eb83d5a9c00U, 0xbdd56bb4be0c40acU, 0x3d46e8803e262c03U,
  0x3dd5f506be350524U, 0x3dc56b52bde6e467U, 0xbdd5400f3df8b3e2U, 0x3df31116bd8f812eU,
  0xbe1eecaabe138864U, 0x3e1f0093be3145c1U, 0x3d8f4c66be3b7d27U, 0x3d72d34c3d886e9aU,
  0x3d861b593dd58f91U, 0x3d0b493f3de3d6e1U, 0xbe646a373e5eadc8U, 0xbdd346b03980aa02U,
  0xbcdc283abe03c673U, 0xbd776f68bd2fa156U, 0xbe366041bbff6e64U, 0x3e04ca553d6e09efU,
  0x3d497f20bd8dd054U, 0x3d65c7583df5fe93U, 0x3b02ce9b3e116035U, 0xbbb522ffbde437c0U,
  0x3bde2ea53dcc3ad7U, 0x3dbc2b523e2b5ac1U, 0x3cacfabebcd12e2dU, 0x3cad1e003e11d231U,
  0xbbdd2100bdb9c96cU, 0xbd506aa0bdefd7ccU, 0x3d36822cbb9be620U, 0x3c3a5be0b9837c00U,
  0xbd9685b3be11bec1U, 0x3dff4992bdb94654U, 0x3e13cdd53d3c7080U, 0x3d922c3a3e206dc9U,
  0x3dd33c84bd31b3f9U, 0xbdec77b63d15b4b8U, 0x3e2f84bb3dc0bd70U, 0x3c5ebef1bc07f6bdU,
  0xbd922d48bd9fc9faU, 0xbe2f0a913d0d7792U, 0xbca775673d845ec6U, 0x3b5281003daf18b1U,
  0x3dd65651bbf4b718U, 0x3db7fe223e5aa97bU, 0xbd92f7a43d65f088U, 0x3bb3186a3db514aeU,
  0x3e11acb33cd9e55eU, 0xbdab552dbe01a1b7U, 0x3ddfe4933cf45b1eU, 0xbd8690063dc8cbd3U,
  0x3dd7b5fe3e44840fU, 0xbd2e8487be0956e1U, 0x3e33ede83d5ac2e2U, 0x3a941db4bd6356e1U,
  0xbdc981503e1975e3U, 0xbd00ef98bd0fef57U, 0xbe0bf79bbdc9cc12U, 0xbd65bad83d6eb116U,
  0x3e3aa4d73d16688fU, 0xbe03bb8fbce6cc9bU, 0xbd6c6efb3dc48f71U, 0xbca32c323e5b3f6bU,
  0xbe055a213d8ff743U, 0x3dddd1763e0c5e33U, 0xbb38a3d03de78c17U, 0x3dc50a2ebc1b21e9U,
  0x3da237bb3d8d811cU, 0x3da1b490be56e633U, 0x3dcc29fc3d87aea1U, 0xbe2be33fbdda6dc5U,
  0xbdfa123e3e182d00U, 0x3e064cc7bd446f9aU, 0xbdcb96263be5932aU, 0xbe0ca945bdc314a8U,
  0xbe1e5db03cd2f108U, 0x3d322c48bdc54f3bU, 0xbe2b11b6bd2336b8U, 0xbdba1f9f3dd5e4aeU,
  0xbdd89e863d3bf718U, 0xbcb1eed83dfffa06U, 0xbe054e683db1a2e6U, 0x3d829e0e3cb93f40U,
  0x3c70d60a3b4295e4U, 0xbe0201f6be19708bU, 0x3d262cd5bd856d5eU, 0x3d77719abe0b05f3U,
  0x3d070277bca716fcU, 0x3d0dd5b4bd8a9d16U, 0x3d60b3d0bd0e7979U, 0xbe153bf33bc1503cU,
  0xbdd91e363d08c642U, 0xbe185f12bd9cdbabU, 0xbe15868fbcfb4032U, 0x3df61236bc8e7d77U,
  0x3cc247debdc0bed5U, 0x3dee720a3c995a80U, 0x3e286ca83db6467bU, 0x3bddf4a03e2695dfU,
  0x3e1c957c3e1248b1U, 0x3e0d4e35bd1aeeb8U, 0x3d08a5973c751c6dU, 0x3df49d2b3e2c6032U,
  0x3dc54a2e3e424fc2U, 0xbe10a104be17da03U, 0x3db6c8b1bda305a3U, 0xbe3285e53d4ef76aU,
  0xbd957cd13dc262b8U, 0x3d1c7ddbbd69425cU, 0xbe2f46263e20c302U, 0x3cc5a63b3e0b2661U,
  0xbc3a8463be3c8604U, 0xbd9695003d5f072eU, 0x3db14768be1f7434U, 0xbd2cd1343d04c641U,
  0x3d3e8bc83e23a75aU, 0xbd6b55613d8b1ba3U, 0x3e2960543cfbf6a9U, 0x3c119df0bd14d20fU,
  0x3deaeb713dc56c36U, 0xbdef7b863e10e98dU, 0x3e0e4c813d3d2992U, 0x3e3a7745bd145c19U,
  0x3da73f42bdf2fa35U, 0x3e14d24b3df0931eU, 0xbd6c8438bd260120U, 0xbace8a003ca7dfc8U,
  0xbdcd1a31bdb8375aU, 0x3c550b70bb222900U, 0xbe0865debd2536b8U, 0x3ce41da0bd2b9f20U,
  0x3e1f47353e720a08U, 0xbdb9340b3d13078eU, 0x3dab8fac3db031d2U, 0xbcceccd43d95a6c9U,
  0xbe1307f23e53d72cU, 0xbd89cdb13e07984eU, 0xbde966423d9492fdU, 0x3d23a580bd4f9e67U,
  0xbc049e40bdfb09a7U, 0xbe13c951bd676852U, 0x3db876b4bcc17d83U, 0x3d680b8b3da42422U,
  0xbddd7f1fbcfcda5eU, 0xbde04d7d3e203e22U, 0x3c35db2e3d308b88U, 0x3e089c3bbda9e404U,
  0x3d5726043e098f02U, 0xbdf101e43dfa2e6bU, 0x3d7ec6bdbced4c86U, 0xbe5af88fbd3d5421U,
  0x3dd04a2dbd7a2200U, 0x3e1f2addbe1eff7cU, 0xbd8e3ac03e31fd45U, 0x3bb157603c2eb240U,
  0x3d1d5c323be325c1U, 0x3a2a7cf63d6f9d99U, 0x3c86c96c3d7c5202U, 0x3de678553e399aabU,
  0xbe0fa514bdbb00f1U, 0xbbd429a03d861c11U, 0x3cb45c433bcab81aU, 0xbe208b44be2f5c5dU,
  0xbba4180ebd89cda8U, 0x3e22cb8ebe41fee2U, 0x3dc77a163d475ad2U, 0x3e0d53533e05d529U,
  0xbe01000dbd1740e6U, 0x3e247047bc0e0edaU, 0xbe2424373d326baeU, 0x3da1b7debe2899d9U,
  0xbe31ef05be0e79a2U, 0xbdc1e20b3e14d7c5U, 0x3dec770ebdc9927cU, 0xbe0a8ea0bdebc532U,
  0xbce93368bd32b708U, 0x3e2ea909bc75a1b0U, 0xbc285db03bbe04e0U, 0x3de933723e14b2cfU,
  0x3de4e17abd1887e5U, 0xbdd39620be501e5dU, 0xbd83ecf2be0d4df6U, 0x3dab6f10bddd0075U,
  0xbe05b7f43db8a437U, 0xbcbaa880be3544e5U, 0xbdb7124fbdef9f90U, 0x3c963050bd867109U,
  0x3bbcc0303d30a8faU, 0xbd0f71613b010991U, 0xbe1a7611bca55a71U, 0x3e2716c33dd29089U,
  0xbd7d78153ddf1179U, 0x3da7ebb23dfc829aU, 0xbd998add3e15fa9cU, 0x3e1c0791be179759U,
  0xbe2d72aebe0377e8U, 0x3e0686b53c112460U, 0x3e36767dbc5ef2e0U, 0x3db49e92bdfdd858U,
  0x3da14e2a3c2bc3f0U, 0x3ce8f5783d43aa90U, 0x3d1a49ecbb2dbb80U, 0x3d95d7eabdb8a784U,
  0xbc605fc5bce61940U, 0xbdd4530c3ceb5eb0U, 0xbe0b560dbe0a82faU, 0xbd2b9a3dbd5c9fa1U,
  0xbe3200103dc8bdc1U, 0x3db5700ebe104820U, 0x3dd2f10fbe38dfe4U, 0x3d94239ebe0e165bU,
  0x3dddbd10be48da93U, 0x3dcb6b71bd43ad31U, 0x3d38b914be41e8bfU, 0x3e1540e43c1d96deU,
  0x3e1bf663bba8768eU, 0x3d280b183dd647caU, 0x3d791bdc3d3f9d4eU, 0xbe15d1873d197963U,
  0x3d7accef3e4f41e3U, 0x3e189a943e2a1f33U, 0x3e0730703dcac942U, 0x3dbb92123e5e7694U,
  0xbe0394d0bdcbea62U, 0x3df1da22be3b9a2fU, 0x3dba8841be1f3ea7U, 0x3dd5aaf23def9fbcU,
  0xbce37ee83d64db52U, 0xbc9d075f00000000U, 0xbcb3b98fbc381539U, 0x3c1bcfa9U,
  0x3d1596d2U, 0x3cddd98dU, 0x3ca8410200000000U, 0x3c9f55b800000000U,
  0xbc1a8e0ebc14867dU, 0xbd140110bbde3ef7U, 0xbd5b2bc1bd297dc3U, 0x3d0f8954bc64be48U,
  0xbd2ea2a53c946fcbU, 0xbca9f479bcf91140U, 0x0U, 0x3b4b4d3fbafe68cbU,
  0xbc9f3ca93d35072cU, 0xbc63100500000000U, 0xbcc69812bb005e79U, 0x3d07d80500000000U,
  0xbb843c8500000000U, 0xbd3b0ad73c859a79U, 0x3bef41a6U, 0xbca5a70e00000000U,
  0x3d0e6e39U, 0x0U, 0xbbcb4eb3U, 0x3c51e10800000000U,
  0xbbdfa79c3bf349a6U, 0xbcb58c9bU, 0x3c9d7b96bc31eee2U, 0xbbcd23d300000000U,
  0x0U, 0x3af078a93ce7c9f2U, 0x3c9174bb3d0d5e6dU, 0x3c6963e33d042605U,
  0x3d4cd1b5U, 0xbcd7dd973c41c791U, 0x3c4825703d4fde68U, 0x3c81e844U,
  0x3d0e9c9aU, 0xbc85117bbbb8e6a3U, 0xbbf34da5bc3bc547U, 0x3b729c26bc6459eaU,
  0x3d0a536cU, 0x3cd5fda1U, 0xbbe6dca300000000U, 0xbb9e58bcU,
  0xbc83af463ca2ef16U, 0x3b862159U, 0xbcb69048bbf1c6f1U, 0xbcd4cc6dU,
  0x3cc09a42bb9aeae0U, 0x3cff390a3ced88daU, 0xbc80c2223c36747fU, 0x3d11d2a73d16f847U,
  0xbd0747c03cab10fdU, 0xbbc3d636bb6e01a8U, 0x3bdc77b8bcc4f73aU, 0x3bd154493cd07bb2U,
  0xbbb099693d1871d9U, 0xbca0bf6bbba71aa3U, 0x3b3a1d0abc581251U, 0x3cf16a863a4071a2U,
  0x3a9b31a400000000U, 0x3d5f2c7bU, 0xbd12684900000000U, 0xbd07b097U,
  0xbbbb621a3c7989ccU, 0x3cd7f5d43cb3aff8U, 0xbd00c456U, 0x3be558e8bc7fb9efU,
  0xbc755de83cb9e084U, 0x3c89f964U, 0xbcaf24903d42393cU, 0x3c594e793bbe4b6dU,
  0x3c35fcb5U, 0xbd18674f3c1a94a5U, 0xbc335a2800000000U, 0x3d10cc42bcccfc3eU,
  0xbe77fd5b3ea54f0fU, 0xbe811158bd2f8ebbU, 0xbe761a52be0249c4U, 0x3e381f2bbd5a4ab5U,
  0x3e54b8c23e91a08bU, 0x3e4c7454bdc1a5a9U, 0xbe7ede4a3df1db8aU, 0xbdff498cbe5d1967U,
  0x3e42c404bcf0cbe8U, 0xbe20b7a2bd91f992U, 0x3e6f24e53c339721U, 0xbd112e523ca9b159U,
  0x3e8cf2ed3e60d266U, 0x3d4740c3be09dd2cU, 0x3e161f833e206a38U, 0xbdb6b0963da6ca73U,
  0x3e222e563d7fc0b5U, 0xbe9bef06bde4933aU, 0xbe58b2053e0e4491U, 0xbd99c6c73e1be870U,
  0xbb7e28543d232aa4U, 0xbe511b373e731d21U, 0xbe263d0f3e6d1362U, 0x3ce6c3b43de23e22U,
  0x3db784543e2c0452U, 0x3c904c19be4394f4U, 0xbe55f49dbe1e0387U, 0xbe52b4d8bea4ca15U,
  0xbddf4b723e2df5d3U, 0xbdd549c039c7927eU, 0xbe9f6a553d8ecc1bU, 0x3dc4e3af3d0044e9U,
  0x3d40b2393d9d59d2U, 0xbccbabb3be24290eU, 0xbddef37abe628322U, 0xbe42e3d4be83c682U,
  0x3d0f27663db7bc4bU, 0x3dd9aa23bcf234b2U, 0x3e02eeb4be5291ecU, 0x3e3aefe33d911fcbU,
  0x3e1165253dd75c75U, 0x3e7fa3fcbe6fae06U, 0xbe1ab507bc71bcedU, 0x3e4a6f5dbc28bc28U,
  0xbe86dd4c3e824409U, 0xbda6ae7dbc933630U, 0xbdb3f235be51c49dU, 0xbdc08617be6d95a7U,
  0x3e76012abe1fee03U, 0xbe806c49be2058b8U, 0x3e9c21e2be42ea6eU, 0x3e5f349c3b9a7454U,
  0xbe02e0313e7fad74U, 0xbe44ac1b3eb8d516U, 0x3e58e825be91698cU, 0x3e950f863e895916U,
  0xbd5cd4dbbbab3efbU, 0x3eb4b429bd2b4309U, 0xbd43dc3f3c968a28U, 0xbcad1725bd80ed2aU,
  0xbe64cc3b3e92aa38U, 0xbdfedd683df1d750U, 0x3d8648ebbe1defc0U, 0x3e344a81bdb24846U,
  0xbe4cc6083bc124f1U, 0x3e68f8f93e6aa17eU, 0x3eaf264e3ea18258U, 0x3dbb2f28bdfb6782U,
  0x3e939c993e900a1cU, 0x3e60f16e3d3b8c65U, 0xbe2d319e3becacffU, 0x3e0ac098bdf9acc4U,
  0xbe14080e3e3269e6U, 0xbe0be3633ded5214U, 0x3de814073d6fc5f3U, 0xbe7f8aea3e53dde2U,
  0x3cb673423e6261a3U, 0xbe4d31443bd740e5U, 0xbe91e7693de63688U, 0xbe132c843d4e639dU,
  0xbe5afb5d3d9a19bdU, 0x3d2480ca3e976a01U, 0x3d19fccf3d987a4aU, 0xbe56b6cfbd8632c7U,
  0x3dd5ec0cbdf01941U, 0xbe7040713e84e6fdU, 0xbe274dee3d1345acU, 0x3e6c1640bd67ca12U,
  0x3e92dce0be542f71U, 0x3d0fe8febe37cdb0U, 0xbe7183333e861ea3U, 0x3daa5d753ea05269U,
  0xbd0ef565bcd112ccU, 0xbe75c97abcad35e3U, 0x3b7b5be33e4235fcU, 0x3e5642b53e8356b4U,
  0xbdb57301bdfec011U, 0xbc5a4fc03de17072U, 0xbe880da93e274de1U, 0xbe48d63fbcdff84fU,
  0x3e45a7133e21fa10U, 0xbe2196f43e304cf7U, 0xbe7502cabc1f3e6cU, 0x3df990a5bdcd2075U,
  0x3e824aa83e3bd497U, 0xbd428b0bbd79fe2eU, 0x3c37e4dabd9e393aU, 0xbe31c801bbbc0a6cU,
  0x3e5c8faebe0f24a6U, 0xbe6c6074be9b3ed8U, 0xbdbfe6d83dbc0a2dU, 0xbe8933ebbd1d8afeU,
  0x3ddba9c13e10d3e1U, 0x3e3051083e0c5610U, 0xbe052da6bdad7fc6U, 0x3e1d802d3e66545aU,
  0xbd89ee73be0777e7U, 0x3d8d3180be0dcbdbU, 0x3e49e9efbd0440dcU, 0xbd8e6e643e177f65U,
  0xbe98f3dc3e81b746U, 0xbdf166a0bd75b468U, 0x3d09104cbe021ff3U, 0x3e1436783d9c0e79U,
  0xbced4423be01beefU, 0xbde06ea23d58634aU, 0xbd71cce83dcc2420U, 0xbe2b5ee4bd432410U,
  0xbe913cc6be50e975U, 0xbcd5ccf53d30740aU, 0xbd7c97fcbe7754cbU, 0x3e70fc6dbd94eca6U,
  0x3e8c4efa3e84dc5bU, 0xbe958ca9bdb352afU, 0xbe926b75be254158U, 0xbd9487ce3e3c1891U,
  0x3be17a97bd71d12aU, 0xbe02c8df3d850c54U, 0xbcde8462be8127f5U, 0x3e8c90febe85d989U,
  0x3e2814ae3e344cceU, 0xbe50d5a83e8ef996U, 0x3e19a2013d89d232U, 0x3d8541f43e174239U,
  0xbe1d49923d063429U, 0xbe8d90983df957daU, 0xbd9969bf3e425ce9U, 0x3e89a24cbdf3c3f2U,
  0xbd4d71d33e8d27f7U, 0x3d48a5823de10a99U, 0x3e864be2be8d0bf0U, 0x3e63c4a8bdc0f67bU,
  0x3eab86dc3bfbdb59U, 0x3e890e4abd95cb90U, 0x3dd71cf93ca7b0e7U, 0xbd72af88be03a095U,
  0xbdaa3b373e4d5f76U, 0xbe29bac23e173f65U, 0xbe6238023dc5a192U, 0x3e5783c8be63f6f5U,
  0x3e5ac0c53e1e626fU, 0xbd9e2f58be86ba8cU, 0x3e0eb4de3e690e16U, 0xbd1a664d3d986186U,
  0x3d4ef06ebd867c61U, 0x3e5acc9bbe3ac1d6U, 0xbe243698bd8b0a4aU, 0x3e31dd1bbe579abaU,
  0x3e3b7736bdf911e1U, 0x3e688503be87bec2U, 0x3e23461a3e4ba925U, 0x3e0d59f7be2b331bU,
  0x3e15c9c73e3d765aU, 0x3dfe6b613e13dcc3U, 0x3e2fc5fabe9d249bU, 0xbdc3d894bdf3cf89U,
  0x3e0cf3f4be93653aU, 0xbe37a54f3c2c6bccU, 0x3e6685473dd682eeU, 0xbd4bafd1bd6760faU,
  0xbe3cfb02be4aa293U, 0xbdbf087e3e6bfa7bU, 0x3e3654b53b032623U, 0x3de377e03d81f942U,
  0x3e379eec3d7871c5U, 0x3e5c02393c03d7afU, 0x3e900617be3f86bcU, 0x3d6b5e593e486c7aU,
  0xbe874699bdd3cce5U, 0x3d1c7fe7be53bb84U, 0x3e8cde4bbe13736dU, 0xbdf0006c3e9c6230U,
  0x3d38a51d3d37a98fU, 0xba7f4000bd3331fdU, 0x3d2e98f23d2786c6U, 0x3d0f76263cbf4e79U,
  0xbcea7c753c950751U, 0x3c9f4715bccbce8cU, 0xbc594e113d6932baU, 0x3ce8a400bcfc5311U,
  0x3e5eb1df3ded727eU, 0xbdb2b8fdbdb59b80U, 0xbe0680933cd20ae4U, 0x3e01f310bd2b99a5U,
  0x3dbf1dfb3e515512U, 0x3e464905be4683a6U, 0x3e5e0aa9be8015b3U, 0xbe2a39a3be9d0e67U,
  0xbe78a1ffbe97e0a0U, 0x3e0fd4ad3e934a92U, 0xbc99ec01be22bc27U, 0x3c3944a73e67268aU,
  0xbd4d1a42bc9230a1U, 0x3d687bc53d9aaed6U, 0xbd42dd9bbe42fb46U, 0xbe37f11c3e0cd732U,
  0x3e94e697bcb3afb7U, 0x3c9d5b39be097492U, 0x3d9048d93e3fe690U, 0x3e59785a3e5e1185U,
  0xbd7c4d0b3e62e233U, 0xbde70ef73d8662f9U, 0xbe47cc2bbe01bdebU, 0xbe0d1ec8be05b997U,
  0x3c6e6bf63e99e04cU, 0xbe4a83793c7e55f2U, 0xbb7f61efbd06ecc4U, 0x3e1abfb83e979e21U,
  0xbe42a891bc36da60U, 0xbe6cadb43e72d0a1U, 0x3d4e35d2bde82266U, 0xbd1de825be2e2dcbU,
  0xbcff24cdbdc66902U, 0x3e53f4703e54d358U, 0x3d89c3213e5fceb1U, 0x3e60eaee3e97eee1U,
  0x3e0c4ae2be2c07a7U, 0xbc1584143d6ab160U, 0x3d6fa8e13d08af09U, 0x3e1ca15b3e3af2f2U,
  0x3eb643a8bd7cad46U, 0xbe5bbb343de8e57bU, 0x3b788e063db630c8U, 0xbe13ebcbbe2c745bU,
  0x3e45c9313e5ea3f5U, 0x3e0ec061bd902498U, 0x3e748c24be31b611U, 0xbe63cf3fbc34c222U,
  0x3eb135a23e2a0a95U, 0x3e893499be44c511U, 0x3ea6d8f2be33cdc7U, 0x3e69d910be139d2aU,
  0x3c24ad3c3d960f50U, 0xbe3fd16bbcad310bU, 0x3d700432bcae74e8U, 0x3d73f3143d1e8bb9U,
  0x3e5f06cb3e774f76U, 0x3e88f6e73d8cab00U, 0x3e5e46693eae2c88U, 0x3e9f31963d64fa74U,
  0xbca78d203bfd560aU, 0x3c6afce2bd1d1bddU, 0xbe0e310c3e417e9dU, 0x3d2d9df7be3410e6U,
  0xbd3005083e2b3209U, 0xbe1ebe93bdbc857cU, 0x3ea57a643e79fb93U, 0xbe188dddbc52816dU,
  0x3ba762db3e7bcad1U, 0x3e2009eeb9b5e7faU, 0x3e868681bc449042U, 0x3e43a98abe2a273dU,
  0x3d217c523d114420U, 0xbe9cbdb43e375330U, 0xbbaa2e62bdb77e36U, 0xbeaaf1c43c809a52U,
  0x3e2e6f173cca23f0U, 0xbde7ffd1bd8e710aU, 0xbea3808e3e1a9a9aU, 0xbcde53483e882663U,
  0x3c2e7c81be1658e4U, 0x3e39e462bd4c0456U, 0xbe910fff3c9913a5U, 0xbeb655d7be961645U,
  0xbe23436c3dd6bc6fU, 0xbea9a5f83e1ecfacU, 0x3d055aa2be7253bbU, 0xbe3e87953c0b90beU,
  0x3c2adeebbe2d478cU, 0x3e60bb2a3d3d39caU, 0xbd7770abbe435391U, 0x3d6c7386be3c4081U,
  0x3e782682bea6a5b9U, 0xbe9a618a3e25efecU, 0x3d992f69be5d2294U, 0xbd64cd7e3e60a0e1U,
  0xbe22d0d5be3833a1U, 0x3d850544be89b766U, 0xbe1503cfbe823e2bU, 0xbd1f1153be571dc6U,
  0x3cc472abbe1ff0e1U, 0xbe80c1d03e0141ebU, 0x3e2e71123e93726fU, 0xbe81d5f7be3a41b4U,
  0x3be09519be80f7e0U, 0xbd3247e2bda2c309U, 0xbe2bd7203e0ae739U, 0xbb052103bdaee15fU,
  0xbe2de429be26fc05U, 0xbe75180f3eb69284U, 0xbcd33da0bdcbbc3eU, 0xbe3100cebe9edcdaU,
  0xbbfd5f25bd42e133U, 0x3e93b4d1bc25b6c4U, 0xbe88ea503d5e4550U, 0x3e656b813e2e7906U,
  0x3e0275fabe73f296U, 0xbc443c603bea6be6U, 0x3e968b91be175edfU, 0x3ce05d683e604d0eU,
  0x3da1735abe1db4efU, 0x3d3efddcbdf3e5a4U, 0xbd10b718be8112ccU, 0x3d31f2bbbd85ad8eU,
  0x3cc614fe3e0a40f2U, 0xbe8b5440bd58c3a2U, 0xbea581543e13b658U, 0x3e96604a3dabbf0fU,
  0xbe442c333d24aa18U, 0x3d930d7bbde806d3U, 0x3e8354c1bdf02d71U, 0x3e6e623cbd002b89U,
  0xbd9ddc1c3d6bb8e0U, 0x3d37c4d6bdc2346eU, 0xbdb297c5ba2ecf33U, 0x3cee149dbe3aece3U,
  0xbe1ae953bdf255d5U, 0x3d6048373e8397cdU, 0xbe4d53783d939a07U, 0x3e81b074be2e7825U,
  0x3e25cb973e1b436aU, 0x3e6aaf2a3e5ecb05U, 0xbe15c92dbd233ef0U, 0xbe09e6013e87af45U,
  0x3d0280bfbbe45d9cU, 0xbd2847693d3ac67dU, 0x3d1c666abc40259aU,
};


ai_handle g_ae_model_weights_table[1 + 2] = {
  AI_HANDLE_PTR(AI_MAGIC_MARKER),
  AI_HANDLE_PTR(s_ae_model_weights_array_u64),
  AI_HANDLE_PTR(AI_MAGIC_MARKER),
};

